const unsigned char object_model[]={28,0,0,0,84,70,76,51,20,0,32,0,28,0,24,0,20,0,16,0,12,0,0,0,8,0,4,0,20,0,0,0,28,0,0,0,140,0,0,0,228,0,0,0,56,171,1,0,72,171,1,0,224,198,1,0,3,0,0,0,1,0,0,0,4,0,0,0,186,83,254,255,12,0,0,0,28,0,0,0,60,0,0,0,15,0,0,0,115,101,114,118,105,110,103,95,100,101,102,97,117,108,116,0,1,0,0,0,4,0,0,0,144,255,255,255,26,0,0,0,4,0,0,0,8,0,0,0,111,117,116,112,117,116,95,48,0,0,0,0,1,0,0,0,4,0,0,0,194,83,254,255,4,0,0,0,14,0,0,0,107,101,114,97,115,95,116,101,110,115,111,114,95,53,0,0,2,0,0,0,52,0,0,0,4,0,0,0,220,255,255,255,29,0,0,0,4,0,0,0,19,0,0,0,67,79,78,86,69,82,83,73,79,78,95,77,69,84,65,68,65,84,65,0,8,0,12,0,8,0,4,0,8,0,0,0,28,0,0,0,4,0,0,0,19,0,0,0,109,105,110,95,114,117,110,116,105,109,101,95,118,101,114,115,105,111,110,0,30,0,0,0,80,170,1,0,72,170,1,0,52,170,1,0,32,170,1,0,12,170,1,0,244,169,1,0,164,169,1,0,20,169,1,0,4,25,0,0,116,24,0,0,100,6,0,0,20,6,0,0,132,1,0,0,84,1,0,0,252,0,0,0,244,0,0,0,236,0,0,0,228,0,0,0,220,0,0,0,212,0,0,0,204,0,0,0,196,0,0,0,188,0,0,0,180,0,0,0,172,0,0,0,164,0,0,0,156,0,0,0,148,0,0,0,116,0,0,0,4,0,0,0,182,84,254,255,4,0,0,0,96,0,0,0,12,0,0,0,8,0,14,0,8,0,4,0,8,0,0,0,16,0,0,0,40,0,0,0,0,0,6,0,8,0,4,0,6,0,0,0,4,0,0,0,1,0,0,0,235,3,0,0,12,0,24,0,20,0,16,0,12,0,4,0,12,0,0,0,127,61,249,202,174,196,200,241,2,0,0,0,2,0,0,0,4,0,0,0,6,0,0,0,50,46,50,49,46,48,0,0,34,85,254,255,4,0,0,0,16,0,0,0,49,46,49,52,46,48,0,0,0,0,0,0,0,0,0,0,244,59,254,255,248,59,254,255,252,59,254,255,0,60,254,255,4,60,254,255,8,60,254,255,12,60,254,255,16,60,254,255,20,60,254,255,24,60,254,255,28,60,254,255,32,60,254,255,36,60,254,255,114,85,254,255,4,0,0,0,72,0,0,0,203,127,3,230,71,200,228,208,219,126,127,72,72,181,255,43,187,64,124,43,102,173,112,30,127,94,32,9,231,49,126,247,12,127,242,49,129,185,39,118,9,78,106,221,188,236,113,95,79,129,96,47,41,248,242,127,224,28,51,3,161,27,170,46,72,7,245,109,129,238,243,166,198,85,254,255,4,0,0,0,32,0,0,0,124,26,0,0,234,241,255,255,214,255,255,255,10,244,255,255,192,248,255,255,0,239,255,255,123,6,0,0,199,7,0,0,242,85,254,255,4,0,0,0,128,4,0,0,86,214,47,27,245,247,115,89,42,1,52,203,36,216,111,113,79,67,217,231,59,49,106,250,221,231,182,12,239,242,80,127,229,202,11,246,232,37,241,231,251,26,248,193,49,36,75,90,236,77,249,47,12,207,45,30,237,16,1,32,246,30,49,101,48,65,198,31,249,204,217,92,208,43,83,104,238,32,225,246,195,224,22,218,43,96,53,158,182,18,30,242,102,72,169,36,134,74,196,202,154,175,63,143,0,51,43,103,178,116,143,163,158,171,244,83,67,78,195,12,248,102,37,176,101,6,37,129,37,248,98,81,69,222,130,131,152,27,199,36,204,21,45,255,23,6,248,215,223,242,19,106,62,203,228,192,97,65,66,228,213,52,29,184,187,243,91,6,221,249,209,47,79,76,78,60,252,223,177,18,68,221,97,247,83,172,9,225,20,57,234,85,182,18,175,26,76,229,221,65,57,62,71,12,14,38,91,73,29,232,15,41,90,12,71,127,1,242,218,33,0,52,127,109,108,69,19,27,111,12,102,89,3,76,245,198,31,71,22,66,238,31,209,210,103,235,225,249,117,41,191,23,69,26,57,221,75,7,184,34,215,220,5,212,251,220,18,5,245,232,53,72,16,3,235,251,103,222,208,39,233,52,10,43,251,185,4,227,26,0,19,1,218,4,119,115,98,97,36,62,234,54,119,234,235,207,27,229,99,18,66,94,115,16,21,249,92,221,245,108,245,210,191,21,15,177,50,22,127,176,250,252,181,249,123,230,35,66,41,17,16,10,34,56,78,233,193,194,90,11,202,20,108,21,9,45,84,224,72,249,217,210,236,65,252,186,119,60,86,15,56,4,200,180,43,29,212,206,0,176,196,200,221,27,127,34,22,16,235,36,229,224,97,255,51,190,27,181,80,44,6,68,253,9,79,68,47,114,70,199,4,249,16,8,80,109,125,254,187,193,46,60,77,33,88,52,217,1,241,222,89,24,6,166,247,75,241,25,208,22,10,253,230,242,205,250,50,50,173,236,183,253,107,212,86,10,34,168,42,31,52,183,69,88,4,47,82,250,192,41,231,213,86,253,216,229,202,186,72,127,17,82,237,8,33,9,39,249,202,50,32,245,52,27,32,64,208,79,60,196,233,3,108,115,23,226,3,236,216,185,58,73,10,232,232,47,40,59,57,85,70,249,213,29,242,207,38,72,72,13,13,241,87,47,215,20,45,38,182,198,43,195,95,37,71,70,215,4,97,176,228,98,212,73,58,54,216,16,69,69,27,29,24,43,217,253,127,105,17,220,43,25,211,46,8,78,240,50,34,182,196,54,62,125,33,211,77,244,46,199,214,13,45,178,254,197,86,231,211,92,251,88,234,14,192,226,118,210,2,167,181,51,196,5,31,111,127,220,166,186,28,180,196,108,92,11,77,30,219,220,193,104,207,232,63,102,76,1,8,88,41,219,44,245,18,107,200,231,48,180,185,73,144,55,166,124,200,95,39,210,167,254,39,34,51,65,253,175,156,69,13,121,204,102,240,26,245,9,234,212,164,220,37,188,154,189,169,194,59,60,96,251,187,72,34,243,73,42,149,191,48,73,198,109,127,82,73,231,77,169,219,0,36,19,171,9,249,86,79,85,73,58,242,212,219,44,111,36,5,0,215,226,84,18,248,47,93,51,158,84,222,208,89,110,225,99,91,194,107,67,193,111,85,184,235,60,10,175,50,10,17,6,193,243,127,231,42,74,44,168,80,109,251,79,20,253,21,215,228,253,233,225,57,71,91,36,66,251,185,191,187,248,54,95,108,67,158,65,23,36,17,18,1,247,158,75,129,161,231,93,40,204,68,99,160,244,135,105,47,209,221,202,204,9,224,64,168,185,173,35,175,54,133,18,67,96,172,87,171,87,5,150,35,81,81,34,97,188,142,249,181,56,26,221,183,187,199,92,85,105,77,213,67,10,85,60,234,252,237,250,75,124,109,206,56,248,210,46,127,3,109,208,5,228,242,102,17,127,52,114,253,22,22,202,29,244,238,234,89,207,235,202,219,127,107,246,14,100,216,7,86,102,240,194,189,216,198,246,3,8,72,57,202,223,214,236,239,91,25,24,203,46,251,35,63,214,56,207,210,93,250,46,25,59,119,177,79,72,236,162,213,7,52,61,69,98,47,15,36,203,102,254,224,71,173,217,66,91,228,15,245,176,1,164,200,81,222,200,176,69,252,181,4,50,127,237,16,213,88,193,113,109,103,185,80,196,121,238,235,238,71,248,242,194,235,77,237,120,83,225,147,173,114,2,63,84,190,209,183,242,42,240,179,176,225,222,220,92,35,10,99,53,37,214,159,246,126,20,126,71,184,23,96,246,6,105,237,80,73,90,29,87,89,5,252,218,175,12,213,40,89,216,240,212,247,201,76,31,50,199,78,226,193,86,8,82,33,14,108,127,61,25,246,184,77,232,63,61,204,48,37,191,13,235,79,120,47,213,179,230,5,8,85,107,213,255,61,255,13,57,113,113,67,46,55,244,239,242,0,91,8,199,238,60,240,39,93,41,47,206,248,7,189,70,96,127,43,23,223,255,84,227,20,105,40,24,6,21,70,191,82,59,126,90,254,255,4,0,0,0,64,0,0,0,116,246,255,255,212,248,255,255,112,248,255,255,244,251,255,255,38,0,0,0,100,12,0,0,41,247,255,255,86,252,255,255,133,21,0,0,122,247,255,255,94,248,255,255,255,249,255,255,197,14,0,0,158,37,0,0,193,250,255,255,224,245,255,255,202,90,254,255,4,0,0,0,0,18,0,0,232,7,176,37,225,94,68,1,225,228,39,62,166,179,15,189,214,12,61,254,83,205,162,219,6,226,180,38,3,253,192,172,177,185,45,40,183,226,167,90,8,231,181,234,196,68,12,242,37,162,54,11,163,39,45,24,22,68,198,217,200,204,199,240,81,50,188,199,193,177,146,218,54,1,14,60,206,14,66,153,216,218,240,23,215,6,5,230,53,242,13,225,56,84,199,70,46,84,19,229,233,214,7,223,72,227,30,248,93,210,74,232,94,86,252,38,210,234,91,86,4,163,220,22,4,211,250,203,43,197,243,191,127,80,79,60,125,73,206,212,21,213,6,249,48,194,18,56,17,183,38,108,85,44,236,47,147,0,55,22,249,25,115,46,87,203,252,254,38,171,210,177,226,228,3,73,105,3,25,36,235,66,17,53,231,189,10,213,230,248,60,238,253,8,95,26,8,35,49,112,66,57,247,240,254,162,249,73,44,234,249,56,238,26,80,119,196,248,25,23,233,2,105,2,62,62,100,17,108,62,119,35,57,63,57,65,195,189,115,85,239,235,55,127,102,58,99,25,172,72,60,83,59,61,32,18,31,238,254,68,63,234,63,89,182,208,41,241,29,209,109,113,19,250,34,53,47,194,64,16,232,245,106,200,77,42,19,89,81,172,127,96,87,208,242,8,210,198,76,50,162,161,38,103,104,211,250,117,114,211,191,229,47,222,71,6,233,28,104,13,29,179,231,35,102,8,184,31,52,214,212,70,16,252,238,10,215,255,88,73,57,225,97,34,208,203,216,174,177,130,40,83,107,61,94,89,46,56,40,17,49,65,226,237,210,150,66,104,253,247,238,110,0,234,224,219,227,22,78,187,206,30,119,85,68,62,96,253,250,224,9,49,233,235,87,29,211,156,7,63,52,78,242,235,92,54,15,6,148,35,24,241,66,210,251,207,247,90,20,35,216,244,235,39,16,254,6,205,56,5,100,58,57,79,91,37,0,31,92,77,194,42,220,232,221,54,217,62,110,200,109,37,115,64,252,233,234,239,208,50,244,51,40,111,92,255,207,48,97,66,183,25,32,4,59,76,83,236,180,20,16,234,3,43,104,53,253,51,1,70,47,185,84,208,39,73,69,50,89,127,245,235,31,74,71,36,33,198,253,52,7,208,73,245,14,72,36,60,33,221,8,36,83,168,98,2,220,228,237,17,237,237,65,74,100,199,240,62,253,51,10,49,7,75,14,195,11,219,252,45,87,64,112,172,239,199,118,120,244,98,40,254,42,46,72,65,248,106,6,193,32,200,5,107,200,226,0,152,55,239,141,55,38,220,204,12,111,204,91,94,173,231,2,93,167,108,15,46,41,191,251,220,147,188,66,3,110,152,240,190,66,91,91,210,10,229,46,55,247,72,192,167,248,70,108,96,102,246,145,6,54,33,191,18,213,252,95,54,39,72,151,238,156,84,93,21,254,80,34,203,143,247,179,182,235,90,59,144,101,51,183,137,175,63,215,191,243,243,165,255,205,21,96,129,74,203,200,28,212,141,168,165,82,166,196,223,101,29,166,158,216,32,57,16,159,171,252,244,100,3,202,172,58,5,175,38,231,3,166,213,67,246,24,149,75,164,222,178,250,85,49,165,82,255,125,181,77,244,174,218,210,212,16,224,30,59,35,188,66,22,247,65,3,245,4,72,197,51,49,36,250,54,32,42,102,35,9,57,7,120,204,49,60,10,38,255,109,50,127,221,104,246,13,217,32,242,80,174,29,242,23,38,60,67,87,184,227,97,96,198,69,105,255,22,232,252,249,168,225,30,30,200,29,47,112,182,194,65,242,84,245,17,65,207,102,52,103,34,3,94,62,46,54,66,227,29,202,40,91,100,85,81,79,8,47,39,40,254,2,6,13,221,67,228,86,91,94,33,236,16,110,239,76,225,2,95,229,4,229,20,47,214,10,21,89,216,5,250,231,25,116,114,58,54,53,188,69,195,29,103,255,199,127,76,103,196,66,68,71,12,89,205,238,223,15,50,231,8,102,63,220,229,50,30,211,69,67,231,226,162,87,3,231,62,23,73,88,71,70,3,73,78,106,18,203,48,41,67,252,235,83,240,23,58,25,52,254,61,249,192,202,142,39,103,60,237,127,245,9,9,93,92,30,8,221,16,194,186,117,23,18,44,248,251,242,49,11,226,169,52,238,21,28,36,106,21,217,39,75,22,1,178,219,235,249,240,225,83,251,175,29,93,66,230,234,40,16,29,58,249,22,202,218,73,186,178,242,49,195,243,53,3,77,66,195,27,16,28,28,59,63,62,198,8,250,219,200,80,34,234,65,50,26,53,3,58,101,8,185,50,255,4,184,2,224,15,58,197,249,196,205,19,105,113,29,63,69,218,235,34,255,92,62,197,45,203,215,229,89,105,30,63,32,4,197,233,99,63,55,34,3,229,13,10,54,46,229,254,194,35,198,60,253,48,183,21,47,183,216,56,39,127,218,50,55,11,222,50,5,1,36,29,90,62,194,186,226,255,206,2,38,216,7,7,5,100,174,239,32,228,57,213,17,55,180,51,243,24,215,229,70,87,17,1,17,181,47,17,0,91,47,241,246,11,35,30,91,212,106,15,255,202,222,182,238,15,8,58,249,53,76,9,94,253,11,226,23,49,32,241,253,186,97,74,243,244,53,92,243,40,83,43,241,248,22,249,31,8,106,35,89,22,37,35,52,38,41,35,242,250,5,41,38,19,101,98,0,230,78,89,27,6,77,5,184,215,43,184,36,164,107,16,33,40,77,247,49,71,238,84,239,240,30,30,40,252,43,34,45,241,24,118,21,241,86,221,6,32,222,242,228,26,24,229,73,39,96,54,97,15,19,65,253,43,250,74,65,252,38,103,15,63,65,127,31,222,4,75,236,254,249,22,19,29,227,238,52,10,120,64,120,48,8,98,76,251,56,231,197,199,19,49,242,199,9,103,41,39,61,43,66,225,94,9,46,41,118,114,65,18,22,93,38,60,16,42,27,197,27,234,171,30,18,250,249,211,21,87,90,33,239,107,189,229,90,198,64,253,6,255,235,195,26,63,49,204,248,22,19,37,250,215,30,36,2,77,32,43,73,251,102,17,93,23,198,5,19,242,209,182,105,83,40,61,85,27,252,15,10,1,219,60,28,47,248,215,93,127,19,243,57,70,108,64,43,46,215,237,88,41,252,219,100,22,22,1,99,95,17,0,93,63,227,247,60,28,243,14,52,32,57,37,60,4,251,236,188,53,248,74,221,169,43,44,200,111,6,26,33,252,1,205,249,17,185,217,15,48,112,170,46,109,43,16,79,251,25,15,78,197,27,229,204,27,215,168,54,58,250,239,223,58,14,68,216,251,58,191,105,50,243,85,19,56,105,197,238,39,39,190,1,43,42,182,205,252,208,20,212,93,10,55,246,67,9,32,226,28,72,25,77,0,104,72,50,228,95,161,206,127,108,202,239,29,244,73,225,47,98,47,249,188,67,247,0,96,47,196,10,193,214,181,69,9,83,110,246,205,109,9,205,122,198,11,10,83,190,11,47,154,193,174,36,44,18,192,92,218,210,77,238,221,244,200,59,23,109,53,113,89,225,224,45,2,79,81,84,247,34,68,205,67,252,252,66,217,2,50,210,88,21,80,214,213,16,224,45,225,247,1,9,83,224,16,176,93,116,32,31,4,72,35,85,187,125,109,241,199,88,240,225,88,124,45,80,68,48,216,74,157,125,127,237,29,218,196,252,82,7,40,182,16,26,60,194,204,117,54,194,76,207,207,105,13,237,215,241,98,62,21,87,227,181,113,90,65,189,196,238,248,37,247,80,252,9,186,31,29,56,92,90,89,12,9,8,221,45,55,253,89,66,14,247,2,180,98,102,96,167,255,0,235,4,103,4,63,57,61,63,164,186,223,154,195,241,59,177,91,107,222,25,235,212,79,188,102,248,23,244,91,218,197,109,196,227,43,185,35,127,246,200,253,78,245,97,20,84,198,0,227,83,192,11,157,252,237,1,98,124,17,222,214,234,250,216,89,212,51,243,156,187,244,187,9,89,250,191,36,227,177,237,206,255,181,75,37,203,224,85,79,235,72,190,12,239,39,165,159,165,228,144,149,156,95,242,24,54,8,23,235,73,36,22,37,51,227,213,34,169,219,73,253,124,1,141,49,252,31,7,30,212,8,244,181,194,76,3,78,192,8,56,24,85,24,54,29,41,2,212,200,62,236,239,205,36,28,73,240,22,177,237,92,26,67,5,6,17,197,228,252,30,239,12,4,209,220,229,33,252,234,195,19,168,51,219,8,7,66,21,10,244,210,89,14,119,208,249,21,222,247,56,3,16,10,251,69,9,226,239,90,114,190,42,228,34,73,98,31,6,232,41,9,76,20,93,32,127,192,82,17,249,48,79,234,30,192,66,220,89,80,209,61,73,42,72,17,239,43,203,55,35,45,88,76,28,217,236,21,74,247,242,206,243,212,52,239,55,77,33,249,98,67,213,97,79,70,44,40,19,192,54,232,1,246,51,36,228,208,250,25,108,30,87,81,11,223,232,21,10,170,44,43,222,217,98,240,1,198,15,99,18,227,81,232,19,191,253,98,228,7,51,89,118,187,55,243,241,22,3,170,180,232,242,49,253,203,228,244,20,253,82,33,200,64,202,203,9,211,96,41,246,0,77,98,70,227,224,222,2,18,19,60,207,20,68,103,100,34,37,232,221,181,60,27,38,218,220,10,237,225,240,47,7,10,74,78,243,68,58,21,18,228,228,66,231,1,60,240,221,20,62,127,72,3,200,185,225,59,234,212,248,22,21,33,225,68,46,80,217,197,50,73,149,4,19,44,19,146,216,84,81,233,244,196,32,27,61,39,209,184,243,2,43,130,62,12,254,68,127,193,226,186,9,250,179,220,12,245,237,228,85,3,0,213,121,77,205,177,61,240,206,12,105,220,206,188,222,85,82,69,255,4,50,23,44,35,247,217,95,28,169,230,30,225,45,254,232,48,216,47,198,95,230,192,32,78,174,220,253,226,228,249,110,43,85,174,40,187,163,30,25,74,160,38,24,231,90,18,94,246,80,181,246,12,212,244,58,214,12,225,108,87,187,64,37,126,94,91,97,193,54,191,192,15,181,13,240,35,232,34,200,53,90,223,195,25,139,207,244,84,200,156,76,47,38,232,21,254,225,179,198,204,44,251,15,243,9,129,250,46,53,220,42,243,64,250,0,75,238,248,206,74,156,155,23,79,66,17,30,226,4,23,34,40,19,185,53,207,195,7,24,253,73,46,252,232,6,175,57,54,202,51,60,28,54,217,44,14,224,13,57,20,247,207,26,221,217,212,69,55,220,204,213,50,83,244,226,55,94,76,200,244,57,191,226,10,21,47,30,52,208,219,38,120,104,70,39,174,228,17,19,15,223,237,249,247,54,21,204,85,85,212,39,30,210,44,29,222,64,213,226,218,34,188,60,19,70,228,226,35,57,179,29,36,239,69,28,74,80,232,221,252,251,199,87,77,85,154,71,5,153,162,49,182,53,95,56,227,164,242,1,80,67,30,229,231,76,44,16,35,72,251,167,14,95,39,252,48,251,217,28,82,1,191,65,16,90,31,24,229,5,208,163,83,162,236,201,85,153,45,199,27,89,214,141,103,188,228,59,34,213,144,20,63,104,45,61,197,3,68,45,198,197,30,171,146,61,80,245,99,12,16,193,242,47,92,79,52,142,6,200,237,230,75,86,145,228,225,217,146,146,247,33,9,14,177,50,129,153,35,232,64,13,194,172,18,187,198,79,32,162,117,80,16,30,239,59,160,122,79,202,170,227,163,212,73,237,38,196,214,32,109,102,127,207,254,84,23,11,174,50,242,253,105,112,185,65,38,76,41,73,156,210,75,162,215,115,1,59,41,212,243,22,75,198,5,252,197,201,30,138,53,210,94,147,216,75,188,67,191,14,85,209,47,180,60,254,183,38,233,17,113,173,149,162,252,54,107,35,209,56,174,35,227,16,75,51,252,18,7,25,243,53,174,55,207,16,10,183,15,190,240,13,70,201,63,16,242,37,79,5,226,211,187,242,72,129,91,61,102,145,216,105,117,232,80,49,175,70,52,22,2,23,178,94,102,167,173,250,65,189,195,57,60,69,152,48,78,243,227,224,252,213,51,251,252,253,74,109,208,221,21,65,75,72,61,61,32,247,84,206,37,3,41,36,222,59,222,240,249,82,248,33,40,89,36,235,75,210,181,202,249,222,109,106,179,75,62,9,31,14,20,127,188,104,185,92,215,59,94,66,181,224,94,238,18,189,210,117,34,191,44,113,8,76,98,34,173,244,18,74,225,239,254,236,217,15,55,62,253,31,88,80,48,46,34,111,45,203,224,35,66,6,170,103,21,222,31,246,214,234,33,9,122,44,27,78,252,225,183,105,207,27,18,217,193,221,67,57,88,166,189,190,42,254,53,46,124,7,224,32,249,18,249,26,48,19,127,107,35,39,188,45,251,230,73,53,192,72,31,35,41,77,89,28,255,246,13,52,208,104,243,250,208,44,233,47,33,76,119,81,214,74,52,64,220,250,243,254,23,120,89,240,244,54,119,1,22,238,190,18,205,100,15,7,72,1,39,44,3,78,244,18,9,10,242,51,157,58,42,26,205,120,62,100,181,73,221,230,67,19,186,47,33,10,68,228,228,88,39,119,24,82,242,238,84,53,71,194,207,37,223,94,4,74,21,104,18,22,212,44,3,34,78,39,205,226,244,29,246,0,236,118,234,97,254,213,73,221,200,195,66,8,30,240,211,32,123,87,193,253,7,194,241,13,54,202,160,233,60,91,9,237,62,64,202,208,245,218,186,0,196,233,28,6,14,227,7,92,60,112,231,54,64,40,216,254,196,249,150,21,250,31,44,106,16,15,246,57,67,49,44,90,211,229,199,55,106,96,5,45,103,71,13,251,64,41,2,60,226,1,197,99,235,98,18,16,127,77,211,237,32,31,241,71,2,184,233,37,74,238,76,8,23,79,189,242,247,136,235,84,74,252,156,78,45,61,69,17,16,12,67,54,230,212,18,22,241,26,193,107,117,107,212,68,58,69,31,232,16,145,88,83,10,51,234,226,110,204,217,174,66,209,89,75,212,13,225,214,250,250,68,201,241,73,251,32,72,86,226,46,239,2,196,214,75,202,56,189,190,27,170,49,36,198,37,14,36,143,11,32,64,245,73,80,254,251,191,247,33,221,204,240,37,92,57,247,47,83,253,188,223,36,205,63,56,87,67,29,30,127,215,172,26,10,39,77,204,216,176,92,34,196,199,64,68,66,8,189,255,215,252,73,196,54,73,46,85,190,201,230,244,198,76,232,198,236,81,26,76,57,45,171,43,171,34,162,241,200,51,188,47,89,92,58,254,174,77,14,90,242,77,176,205,251,13,199,63,36,229,82,51,57,211,239,14,223,109,197,28,71,189,35,201,79,46,37,231,254,68,46,36,72,84,70,211,40,198,240,44,54,10,236,248,230,244,188,232,237,199,235,12,216,205,209,248,31,203,10,25,82,245,210,68,23,56,60,36,102,26,34,197,22,127,51,32,58,207,202,231,239,238,250,46,212,22,206,24,45,93,215,222,12,44,60,69,77,20,25,244,56,209,66,19,51,66,27,251,48,14,241,231,242,62,16,31,237,198,193,194,241,51,254,245,33,36,227,99,45,86,181,28,55,2,17,41,47,5,8,192,195,11,244,253,49,38,229,174,24,240,198,51,204,251,77,66,90,191,85,120,46,216,52,74,13,193,27,55,49,59,17,109,254,189,76,79,32,210,53,5,93,4,34,229,13,244,16,27,250,227,93,249,71,67,49,22,81,238,71,21,192,244,34,43,26,73,38,115,120,235,76,94,99,41,20,1,185,19,124,33,222,254,61,77,112,27,93,110,10,232,88,204,198,152,127,55,31,246,66,240,78,250,55,72,240,202,11,23,37,251,126,109,39,33,40,28,49,18,23,51,11,67,208,32,255,253,13,50,71,57,81,95,17,17,50,82,5,222,38,39,20,190,66,110,224,232,72,77,233,7,223,58,47,1,13,215,9,43,81,4,252,65,20,35,149,81,221,249,29,38,30,81,194,207,194,249,52,183,80,189,208,140,99,218,151,180,206,239,174,229,36,89,118,188,219,172,178,248,190,32,146,41,207,225,233,233,8,192,38,240,32,94,151,86,57,12,19,255,171,255,85,36,27,76,202,28,195,76,48,209,44,181,90,64,188,206,180,103,243,182,252,191,167,38,155,46,54,13,14,104,46,134,52,99,237,13,149,85,83,8,41,233,85,206,78,102,15,236,217,47,157,149,99,49,129,165,115,172,28,56,202,18,222,168,164,203,229,188,202,221,252,176,218,23,59,48,239,131,238,27,85,204,240,22,99,193,253,34,122,15,247,13,14,212,53,182,33,201,40,252,54,238,119,80,2,211,89,16,246,202,225,244,55,43,3,103,221,2,44,77,40,234,23,127,20,229,98,196,43,44,230,106,212,246,8,18,241,8,78,223,18,10,241,20,162,156,249,241,67,12,79,40,43,246,217,75,47,75,4,27,156,228,82,82,45,26,81,55,229,33,236,78,97,57,234,63,208,28,32,8,6,13,41,254,255,223,198,17,9,206,254,3,24,204,0,13,51,68,67,5,90,47,235,197,250,233,216,6,48,55,24,214,33,248,229,82,53,32,232,45,178,60,224,241,15,194,214,25,81,250,228,183,45,4,234,205,60,253,194,18,231,41,211,73,31,85,253,194,79,88,158,50,25,27,202,23,251,54,197,173,240,211,245,187,253,153,196,194,195,28,44,59,37,101,31,73,199,165,177,216,250,252,232,203,71,230,245,26,127,100,19,37,81,62,160,2,92,188,238,179,206,185,12,66,43,56,17,27,24,206,45,16,3,46,213,252,246,228,17,172,95,37,183,76,220,247,226,35,237,207,221,58,152,82,195,58,85,44,175,12,158,54,204,14,34,95,192,221,18,215,239,240,103,107,33,4,42,229,216,52,206,101,222,62,239,245,18,251,197,214,233,217,241,55,115,3,79,94,80,57,91,17,74,218,242,64,57,68,236,216,127,236,110,84,215,61,62,32,238,179,226,235,27,90,110,251,235,69,43,33,98,69,238,47,64,8,102,109,51,112,200,79,12,102,48,247,36,41,228,18,103,200,95,220,214,60,93,253,38,22,45,7,21,93,18,223,224,251,239,236,98,50,69,245,232,62,224,56,44,73,86,234,96,80,237,106,44,235,89,32,66,59,81,10,78,57,222,23,205,68,62,14,249,65,69,187,254,61,243,253,85,78,39,244,86,252,60,80,99,53,220,88,20,85,199,86,13,57,221,194,73,84,99,195,98,220,217,240,16,108,112,109,48,246,207,9,224,201,52,3,85,79,114,23,111,123,53,105,18,58,179,179,48,65,5,18,83,105,121,196,103,122,66,247,36,205,246,249,15,39,223,43,222,203,28,18,232,95,111,69,223,50,48,245,180,201,33,1,189,252,237,31,68,110,119,41,212,37,78,192,13,29,110,2,245,5,19,206,52,63,11,105,242,199,183,26,73,6,247,228,46,93,74,188,230,12,2,233,24,199,222,64,7,214,76,31,38,18,237,0,45,252,61,72,184,210,44,64,218,43,54,214,89,63,20,45,249,127,56,211,72,65,85,188,86,24,78,94,215,223,20,218,217,197,80,90,8,28,4,99,33,106,56,233,16,206,5,59,202,239,49,244,10,80,106,208,195,92,54,223,77,11,40,188,89,70,237,46,190,38,187,196,253,207,62,235,117,197,80,0,18,72,234,233,248,84,64,58,211,74,27,231,221,242,248,97,82,34,99,225,82,70,194,37,214,16,80,127,2,70,241,192,224,26,233,255,6,231,153,234,13,84,89,64,246,5,252,15,77,115,72,113,50,36,97,78,53,189,246,117,15,49,108,60,59,232,62,182,16,169,30,21,45,209,1,120,10,222,188,9,19,98,55,48,49,207,73,76,192,13,208,59,63,15,15,195,194,109,47,16,73,241,246,76,216,86,223,65,109,96,211,29,44,201,8,55,76,200,71,251,22,21,1,208,207,73,209,71,233,82,218,110,50,238,23,192,95,31,20,231,200,41,71,63,112,65,56,11,49,245,85,0,204,51,236,92,2,243,251,236,28,244,41,13,173,17,116,90,202,179,84,231,50,80,115,229,95,93,74,245,63,8,246,229,63,81,106,224,227,197,89,210,35,13,1,16,183,196,229,31,94,13,216,12,21,65,127,168,67,247,86,5,180,49,212,3,254,164,98,87,208,206,107,217,193,79,119,45,247,81,194,173,218,162,56,86,180,73,214,108,254,255,4,0,0,0,128,0,0,0,22,252,255,255,96,251,255,255,151,247,255,255,106,251,255,255,135,243,255,255,253,248,255,255,100,2,0,0,19,252,255,255,242,245,255,255,196,255,255,255,5,242,255,255,134,2,0,0,100,1,0,0,90,250,255,255,95,243,255,255,29,1,0,0,241,238,255,255,96,249,255,255,85,253,255,255,31,253,255,255,62,248,255,255,187,241,255,255,194,248,255,255,7,254,255,255,105,250,255,255,9,247,255,255,214,251,255,255,122,252,255,255,142,253,255,255,150,245,255,255,86,3,0,0,79,0,0,0,98,109,254,255,4,0,0,0,0,144,1,0,34,251,175,101,21,12,84,252,245,10,28,81,148,202,5,174,162,62,24,224,58,153,81,19,141,116,24,191,83,71,254,238,159,38,216,60,195,35,109,222,87,94,3,166,17,252,76,25,156,201,178,147,39,240,202,253,80,178,82,172,230,14,182,238,247,218,89,175,36,232,210,2,188,60,67,50,243,180,187,180,142,44,206,72,39,204,236,177,156,172,156,80,196,4,185,4,55,169,109,23,205,253,48,239,215,0,93,69,199,170,254,225,35,140,202,35,53,192,228,229,163,221,186,241,208,154,183,148,140,74,12,59,48,213,58,5,87,50,202,174,148,180,93,34,227,173,58,75,16,53,218,102,39,200,99,69,226,9,248,223,18,70,58,86,88,149,8,253,214,97,174,202,84,18,28,246,36,236,238,34,222,224,16,240,181,216,248,208,60,211,233,80,173,95,215,95,231,145,168,211,220,88,13,52,184,192,144,76,67,45,140,187,182,164,32,55,177,70,21,197,40,211,203,14,201,188,164,101,104,6,178,6,146,247,240,36,196,159,68,55,155,11,227,33,73,207,5,103,198,101,85,81,193,140,16,253,233,41,60,243,206,182,200,233,62,233,67,20,218,196,238,41,251,0,10,234,80,37,157,68,226,224,217,240,151,166,175,158,211,60,231,168,226,43,108,34,166,15,234,65,15,39,153,212,59,177,249,175,31,56,53,57,36,171,213,45,59,253,219,200,169,194,252,16,53,11,22,148,57,214,102,44,30,15,188,99,161,232,234,177,13,95,236,209,27,46,64,251,198,75,185,86,165,39,193,28,12,58,221,166,173,188,190,152,158,65,248,203,66,57,46,245,77,175,180,32,194,169,92,150,13,144,152,14,169,57,167,242,49,239,98,73,19,154,244,236,41,156,156,109,46,137,205,62,39,185,149,83,215,18,35,31,217,243,189,233,198,32,240,77,154,217,248,249,139,185,109,163,141,205,92,51,153,0,20,162,190,98,162,43,86,77,12,59,219,145,172,180,146,168,102,52,210,251,172,17,170,220,58,75,147,236,199,20,155,60,206,250,66,176,81,18,15,99,225,73,217,143,219,17,37,63,173,163,51,210,105,74,59,247,229,218,181,253,174,53,28,207,231,145,234,201,165,197,240,83,225,32,197,67,247,53,61,231,244,51,73,78,230,85,250,191,118,226,215,208,208,94,147,91,178,240,50,164,17,161,157,120,236,27,150,245,14,249,162,23,179,224,37,86,9,196,182,217,107,15,163,103,28,47,68,175,161,179,234,61,39,174,48,6,158,246,174,187,151,30,235,57,248,199,224,211,165,19,88,15,108,220,28,51,158,92,3,183,199,190,1,156,36,43,80,195,77,193,200,167,33,254,16,91,233,110,154,60,49,85,156,200,236,74,146,217,88,91,60,241,240,157,18,165,160,17,216,66,156,33,96,186,70,59,55,13,221,185,38,218,191,159,215,178,63,237,31,183,73,112,6,38,157,17,173,67,190,166,38,92,37,62,234,152,67,70,231,120,11,48,193,242,32,7,9,95,188,30,226,86,14,211,194,137,137,76,181,100,200,41,206,173,224,237,211,224,3,155,143,216,53,191,21,34,104,234,71,180,10,230,70,84,160,250,191,185,195,72,84,95,162,199,53,32,103,225,68,232,63,197,45,228,180,151,91,60,241,150,240,30,200,209,169,33,158,87,202,173,51,4,250,91,3,6,87,43,58,0,4,178,232,255,153,117,82,206,172,4,198,62,241,62,255,96,47,237,63,109,233,67,237,11,74,156,160,99,72,5,61,4,164,90,7,185,151,126,215,93,189,52,118,178,176,26,190,96,1,102,36,24,71,232,148,234,168,81,46,166,241,213,81,40,211,83,37,247,33,3,68,17,11,55,108,59,83,115,173,93,164,63,245,44,82,168,246,163,51,55,254,174,188,205,91,200,232,218,156,4,251,100,107,244,172,96,241,23,210,24,78,185,40,219,177,38,211,176,169,234,185,34,143,110,63,209,154,223,161,229,140,248,169,254,44,51,160,164,252,195,174,24,237,65,220,80,165,177,213,233,175,226,7,173,14,51,20,78,25,70,95,42,200,181,52,233,239,239,179,249,21,20,232,84,50,89,203,167,4,213,223,78,191,253,89,185,176,39,105,105,90,172,70,26,237,182,185,102,250,85,29,81,115,187,4,205,96,105,250,63,253,108,219,43,66,12,210,181,195,98,93,214,202,143,57,69,78,242,166,40,66,199,51,56,234,5,203,251,11,105,13,226,240,18,171,35,222,60,188,227,178,48,190,163,154,203,151,179,8,192,11,192,99,233,217,23,97,35,45,181,118,219,79,83,248,103,31,40,93,7,0,40,194,77,171,79,29,46,90,88,28,140,239,103,242,180,61,24,169,237,83,75,174,53,148,190,220,70,231,175,219,148,185,187,157,48,180,253,82,25,213,210,16,164,165,36,59,26,20,170,65,195,242,242,204,243,176,238,144,14,227,64,182,72,244,161,39,6,64,31,13,237,18,154,245,88,54,49,31,3,18,226,95,141,164,144,249,65,195,85,177,173,162,221,171,69,149,30,57,196,237,79,7,6,184,170,17,40,70,71,47,154,177,10,54,35,150,38,217,248,168,74,4,237,37,66,213,79,163,56,67,164,41,192,162,174,155,194,159,55,29,196,234,177,91,51,35,68,144,178,86,12,21,47,182,64,10,212,33,252,27,249,182,233,162,79,169,56,16,81,65,164,62,173,67,106,243,232,103,219,232,254,22,165,19,105,66,5,163,241,161,238,187,90,189,246,250,7,86,89,224,0,169,233,162,204,184,52,83,82,114,164,93,66,21,203,194,231,77,30,183,16,173,250,88,252,243,204,152,185,205,252,177,80,161,8,159,70,195,12,217,216,251,6,165,66,181,88,86,214,228,234,176,233,156,66,39,12,159,51,40,1,34,57,34,144,147,14,50,199,55,39,210,50,228,23,63,169,171,206,37,184,170,193,24,173,170,48,211,206,196,244,199,190,197,243,13,193,219,83,158,162,243,154,219,202,66,239,143,100,190,159,65,81,231,14,26,28,76,235,28,11,146,213,32,32,7,94,177,22,215,2,195,141,1,41,158,42,112,191,206,87,147,173,83,237,173,189,21,94,6,183,199,37,226,243,198,219,9,227,210,237,56,77,69,67,250,253,56,155,179,18,11,230,39,36,39,84,209,165,238,141,252,71,20,178,209,235,46,196,93,73,238,30,194,173,248,144,221,198,164,200,237,17,228,30,58,76,38,163,213,208,17,29,42,35,196,156,56,215,27,201,56,205,220,86,151,34,198,244,230,233,193,150,201,214,251,208,22,17,44,91,30,155,211,62,241,139,209,54,17,57,90,149,102,140,209,18,13,161,222,76,51,202,20,203,70,174,59,186,230,238,33,9,249,149,12,220,241,58,199,229,63,217,234,170,66,189,184,68,241,68,15,229,157,183,72,89,26,7,220,167,80,32,82,169,237,74,13,85,72,157,176,220,45,217,211,76,157,179,14,64,173,30,197,157,183,107,8,196,240,4,73,231,177,236,232,195,4,49,174,144,188,229,182,12,72,17,190,78,253,252,165,177,89,228,155,218,206,104,61,160,234,91,148,15,255,231,61,213,190,53,82,40,175,101,206,64,48,148,80,246,209,152,23,33,3,146,32,158,216,32,15,10,232,246,205,208,45,53,39,166,14,190,248,52,3,25,176,3,54,37,71,58,193,55,227,141,176,146,9,165,56,147,238,143,62,26,193,168,169,192,203,55,231,81,141,83,48,6,25,159,60,92,9,53,59,35,47,37,241,180,4,10,78,214,207,227,24,238,183,174,203,228,6,207,172,39,15,16,168,47,67,4,160,191,32,246,25,33,144,194,84,57,217,27,180,244,32,210,26,162,154,160,44,161,191,20,225,158,171,68,88,162,4,78,205,226,17,157,45,42,34,220,215,253,162,174,208,86,18,77,168,186,45,89,193,254,234,247,69,30,238,173,75,220,54,24,158,164,34,226,102,93,85,68,203,185,182,171,248,53,40,240,63,101,176,238,209,68,247,202,231,230,218,213,42,215,206,96,144,242,44,148,234,94,154,48,14,26,87,238,210,151,189,220,86,214,58,69,169,151,178,209,51,148,254,255,234,3,139,250,157,8,16,172,19,69,178,83,232,211,38,40,24,182,100,151,196,230,204,74,25,1,150,243,4,76,90,249,212,239,250,5,91,78,248,62,35,235,147,165,67,144,183,251,211,238,220,189,181,29,212,75,50,63,193,229,231,43,60,227,192,192,78,33,238,111,242,77,173,18,206,66,39,24,11,241,225,189,161,235,3,159,29,33,206,13,205,44,179,194,253,240,157,193,217,202,158,47,56,149,228,24,87,10,143,182,247,194,163,15,207,153,232,63,221,93,148,242,174,172,12,190,64,76,206,5,213,48,140,154,61,86,46,52,57,76,208,193,185,43,20,208,237,56,77,178,158,250,170,86,252,26,24,209,53,253,163,178,137,10,77,5,215,26,167,232,169,170,160,78,149,64,230,74,167,71,83,237,185,165,48,68,197,38,23,172,248,88,217,12,151,184,233,177,41,153,96,50,55,210,77,44,197,136,20,200,173,63,16,217,157,192,239,235,59,75,74,210,58,233,10,156,52,189,80,68,206,229,249,35,165,41,85,164,170,186,75,174,223,235,55,221,58,101,36,57,211,16,196,193,41,36,198,16,210,192,54,211,4,209,64,79,63,245,81,194,19,234,200,14,207,60,2,144,244,100,79,214,176,231,174,95,219,86,148,2,67,11,225,251,1,54,214,206,29,8,180,168,223,73,212,208,57,214,217,81,157,38,195,246,10,78,203,52,213,55,37,242,19,155,69,46,18,19,212,202,201,54,29,189,41,48,1,90,199,200,199,180,196,177,250,33,69,206,163,45,48,231,1,221,205,170,140,208,40,21,54,227,240,4,196,55,61,248,233,166,79,206,66,27,223,144,245,191,17,4,222,172,198,191,29,196,235,69,75,11,214,255,186,49,247,83,30,229,194,195,201,31,51,69,67,52,222,205,233,173,28,29,5,198,142,180,36,249,42,248,43,56,172,49,87,18,75,167,37,5,74,233,30,51,101,13,48,86,16,46,249,23,187,47,40,62,151,26,27,217,209,35,140,98,196,186,92,46,242,82,15,144,207,39,169,156,233,186,223,158,31,71,87,169,248,84,180,94,61,80,214,161,201,249,230,42,172,170,168,176,40,180,49,251,247,174,30,243,50,146,70,216,45,178,246,243,19,63,169,83,174,245,44,12,166,228,3,167,243,19,21,164,224,59,223,151,220,138,18,154,88,244,232,226,67,214,242,51,195,198,226,198,77,50,61,18,129,164,78,217,170,220,39,193,68,244,161,23,140,81,7,21,170,252,222,144,171,143,37,240,83,214,156,49,3,78,161,78,52,161,32,37,14,145,149,12,164,202,245,172,76,33,0,147,33,30,7,199,54,153,248,255,156,236,235,231,163,10,84,80,192,13,0,180,143,13,217,17,212,220,217,239,219,40,217,2,22,250,53,46,232,3,92,167,228,176,29,205,30,20,237,20,232,33,84,139,14,53,214,44,240,246,53,85,236,0,192,247,37,172,248,183,66,77,104,78,197,73,64,147,209,43,199,253,235,231,228,229,252,56,29,200,218,210,10,164,70,48,51,60,237,242,27,176,237,10,101,252,165,81,14,235,73,46,54,219,232,67,174,21,162,248,245,182,199,198,70,79,31,226,196,99,220,20,157,198,28,168,231,23,139,243,55,70,50,40,70,242,137,246,85,11,15,20,248,40,247,184,245,112,69,25,165,208,90,23,176,25,38,203,235,202,171,168,18,235,23,241,224,215,211,58,11,230,153,238,200,174,74,226,237,211,227,85,57,245,153,69,44,148,153,25,233,154,1,224,67,248,34,242,17,221,35,36,76,92,70,17,202,71,152,2,248,105,202,75,180,90,96,237,204,89,237,7,211,24,204,235,87,207,168,238,18,7,24,38,233,86,164,205,171,252,51,215,40,163,213,159,166,40,3,59,227,211,255,206,105,91,44,205,74,63,230,160,186,236,179,37,72,50,155,189,240,32,142,152,65,253,10,35,155,198,32,8,51,204,141,243,53,94,9,222,168,244,180,209,78,86,162,54,166,67,174,75,220,151,191,251,89,231,233,34,27,78,12,72,69,16,152,242,80,236,192,57,235,94,22,46,87,145,21,12,32,89,236,9,41,249,213,199,151,237,65,3,251,104,105,18,33,86,219,194,95,251,46,28,15,77,31,225,6,32,134,78,2,46,160,52,212,13,165,140,90,157,64,50,229,187,172,221,99,198,225,74,35,239,74,1,190,248,69,189,24,54,239,227,66,202,225,40,212,231,57,72,191,23,65,240,33,78,37,146,235,239,27,246,170,95,223,241,148,177,31,76,247,201,179,196,150,156,25,54,163,154,50,202,204,193,209,5,66,80,243,205,74,11,30,228,169,162,197,202,163,163,246,90,254,39,138,92,3,34,139,0,218,151,144,198,155,226,177,72,32,40,212,227,235,189,18,89,180,81,43,80,47,73,51,249,175,43,78,201,180,89,146,31,215,236,247,202,12,27,38,177,72,37,30,56,239,180,5,247,16,169,177,103,25,162,214,242,255,162,183,13,165,16,184,65,87,165,221,245,155,83,219,180,155,55,188,80,87,252,50,228,17,194,56,177,176,72,155,190,38,6,79,237,19,10,81,9,83,215,174,220,65,112,92,22,62,220,222,39,74,32,51,42,178,160,80,65,12,39,237,40,224,153,216,219,173,167,205,55,160,6,189,175,148,232,187,208,182,161,35,183,175,41,42,4,213,48,93,18,17,224,170,74,177,68,46,222,163,203,5,23,77,150,22,214,51,231,199,208,179,164,169,90,174,160,31,151,169,51,245,196,247,94,172,16,189,29,65,191,222,172,204,46,202,24,242,228,171,111,70,75,159,29,218,6,173,95,181,193,106,187,181,1,255,52,79,23,250,71,56,187,200,197,92,169,50,19,224,86,12,240,197,177,12,167,197,198,235,195,192,87,255,250,88,20,167,160,216,88,249,59,159,52,20,237,43,159,185,240,64,226,191,229,67,71,189,234,168,140,44,212,241,154,169,3,43,100,47,254,159,231,58,15,84,7,30,44,202,80,208,12,145,167,3,21,92,190,173,208,200,194,219,236,229,75,68,224,31,220,213,209,159,193,17,171,216,234,252,227,255,41,8,231,209,10,45,234,1,63,29,34,202,76,153,242,72,43,35,254,49,57,37,191,196,230,36,169,193,183,216,82,241,2,237,220,28,164,23,225,18,142,247,243,20,41,12,30,233,23,57,72,229,72,49,191,37,168,26,183,161,30,159,56,243,78,54,46,70,23,13,241,42,188,17,22,71,58,201,247,158,56,89,32,12,45,36,57,175,232,174,158,165,179,168,87,181,216,60,21,35,216,211,36,69,211,169,29,165,26,73,55,181,185,171,13,41,192,203,9,210,243,204,192,244,215,43,44,64,64,177,39,165,205,205,37,62,32,251,30,198,16,41,64,15,253,64,3,176,79,239,17,7,81,199,193,164,24,249,57,63,185,222,68,201,208,35,9,26,19,186,11,217,246,231,242,156,246,204,11,168,75,39,187,245,181,178,43,59,219,240,30,226,241,226,210,173,221,176,207,193,41,210,55,74,78,30,78,240,48,200,95,19,49,47,235,160,227,217,204,166,2,81,58,75,236,13,179,72,72,66,226,175,34,1,13,175,157,55,157,211,17,75,186,85,193,173,16,13,216,59,205,25,159,20,232,1,25,219,100,16,205,20,202,21,245,210,202,228,208,245,216,78,224,183,242,54,227,190,208,9,34,217,71,36,156,9,170,19,225,212,90,184,170,243,238,249,1,254,70,233,202,237,10,43,161,230,240,162,211,206,34,184,48,5,201,4,147,185,47,180,177,34,247,199,162,199,254,47,173,154,201,30,200,14,227,42,204,87,67,183,65,242,164,188,165,196,176,230,59,33,203,209,245,15,89,162,152,58,182,52,44,177,9,169,251,20,214,16,185,223,178,173,52,64,173,168,187,180,20,24,145,11,193,69,166,179,78,21,14,230,48,63,195,167,30,40,57,246,202,245,222,68,23,237,186,71,205,26,89,62,236,199,244,12,92,220,16,223,198,150,187,158,200,23,159,154,175,11,183,52,50,32,248,218,9,29,45,163,33,237,210,228,32,226,174,213,72,155,249,53,39,2,80,223,8,0,144,178,235,76,217,78,23,204,237,206,87,202,212,76,207,18,66,220,234,29,4,209,189,195,42,63,58,7,27,54,248,20,0,54,21,220,62,16,46,229,221,229,52,174,27,75,62,63,190,48,50,192,252,38,81,64,64,13,92,165,22,78,197,48,70,22,115,172,60,166,2,67,202,5,66,169,234,187,158,70,207,54,161,172,173,207,49,243,254,49,77,253,18,9,64,248,228,61,245,79,7,184,58,11,19,42,76,252,174,237,219,215,19,242,43,222,60,229,20,43,32,7,191,202,232,6,81,33,190,239,107,92,155,234,209,198,149,175,189,0,178,59,7,220,237,83,8,39,13,50,181,53,15,210,22,198,227,28,240,217,30,5,19,211,211,246,254,32,225,192,223,200,60,49,147,173,255,164,192,165,68,41,67,162,227,31,58,31,16,250,193,69,148,239,63,168,173,204,225,183,173,35,8,83,239,232,38,161,224,167,26,169,186,235,59,228,21,179,88,15,175,243,212,163,68,228,0,203,30,35,253,143,17,221,178,61,149,198,48,19,245,226,76,221,147,237,239,231,255,4,39,54,205,71,86,171,171,238,79,2,188,152,91,61,212,30,29,224,65,246,35,153,27,205,30,174,41,249,202,196,2,181,1,33,171,67,61,68,210,177,174,85,252,179,65,16,51,60,67,193,178,160,203,67,39,70,35,216,70,160,198,225,190,194,240,74,6,238,229,69,190,241,229,17,214,8,204,153,46,183,191,244,53,24,19,181,54,253,150,12,186,236,47,179,230,51,247,34,23,80,173,245,28,250,42,184,186,165,159,188,45,55,252,47,46,13,248,181,185,247,241,5,152,158,184,154,52,8,29,196,175,185,248,6,152,226,231,221,18,182,92,206,13,248,46,188,161,241,202,192,205,62,47,165,150,61,221,38,88,229,25,158,202,46,184,251,210,30,39,202,199,168,24,142,209,185,219,4,196,211,17,156,49,167,4,252,188,160,24,227,212,8,175,232,32,213,11,11,20,7,50,193,200,238,101,161,42,234,75,231,63,239,2,214,165,73,29,26,37,189,93,164,186,197,216,40,215,17,21,208,145,195,224,180,26,252,243,161,163,225,77,17,42,145,186,217,16,160,167,241,218,228,188,33,68,32,47,29,32,236,73,57,250,194,55,225,46,207,247,235,153,40,50,215,172,26,35,255,231,194,196,65,168,51,249,55,174,23,65,215,0,200,21,184,15,174,191,223,218,178,238,197,223,48,93,207,196,212,210,178,21,168,59,210,12,177,233,222,216,157,72,196,240,220,201,202,44,2,54,62,179,241,248,17,228,70,31,172,13,33,43,219,40,182,57,208,63,49,37,4,74,17,71,222,14,157,245,86,70,49,246,20,241,62,56,61,58,184,75,204,17,204,249,40,176,192,227,14,240,191,95,167,226,33,208,167,208,36,203,5,201,9,251,90,44,56,31,154,175,49,216,148,148,19,220,67,160,206,172,17,48,43,56,217,24,6,78,212,238,22,62,195,177,46,208,175,226,74,17,215,180,21,235,189,72,153,22,213,64,39,12,220,220,245,80,2,174,206,230,154,6,63,224,187,148,13,65,59,246,40,203,63,219,21,6,71,37,164,168,237,158,190,76,20,53,206,204,67,83,149,206,219,38,53,28,254,218,10,75,27,34,247,11,232,36,173,100,17,52,216,19,229,43,229,190,199,68,213,209,59,251,179,243,220,193,242,3,246,180,174,185,58,8,56,174,144,157,221,79,181,39,245,177,206,6,174,152,50,193,209,92,6,187,65,7,229,54,248,231,74,9,169,230,218,254,164,72,193,171,184,194,222,168,211,6,226,77,36,36,243,67,230,17,64,184,16,210,78,17,62,50,89,190,192,250,0,19,79,206,12,197,78,241,205,15,193,171,167,168,80,70,163,12,217,92,6,198,58,198,40,213,236,41,74,226,234,78,215,254,23,204,12,243,244,72,50,190,5,249,177,162,2,247,62,217,248,20,238,0,51,61,66,222,169,14,80,84,14,185,23,164,26,212,66,250,197,98,3,62,187,79,252,247,236,233,172,80,206,57,165,74,33,192,240,181,25,191,10,240,70,174,17,180,160,6,190,0,88,86,250,56,34,169,34,200,63,212,1,250,54,41,222,64,244,214,171,236,51,89,230,223,184,101,29,192,230,27,42,73,2,197,243,171,186,152,193,23,195,229,73,27,219,36,238,75,251,254,229,208,254,95,185,183,162,47,248,196,236,251,207,30,192,96,153,176,182,226,209,39,79,14,163,232,230,201,174,225,21,223,71,53,166,72,220,206,172,50,41,2,37,240,223,80,100,83,210,17,63,49,237,192,3,45,177,227,240,183,191,60,189,232,2,154,238,52,203,73,27,4,73,189,177,231,242,192,234,55,159,208,243,10,235,22,254,233,217,50,67,238,222,18,232,171,20,206,7,193,32,84,29,250,201,170,34,176,59,233,97,21,2,74,23,178,204,15,1,245,12,182,182,42,52,51,239,72,246,250,10,31,229,199,243,168,10,238,176,231,159,84,80,74,177,179,176,6,206,207,163,156,4,52,198,228,50,181,75,151,189,153,242,14,9,226,190,213,177,24,60,226,158,65,1,42,15,167,189,32,228,30,236,173,158,24,48,210,182,93,198,159,233,152,68,221,219,42,229,89,22,71,222,185,166,65,96,13,1,63,200,247,43,193,45,252,75,165,178,239,25,201,230,27,63,157,207,17,240,170,175,32,206,238,157,85,239,5,99,206,41,169,65,194,207,66,196,67,35,241,64,213,41,88,71,171,160,193,172,29,209,34,75,33,56,67,206,216,196,214,222,44,186,81,20,235,77,202,15,19,249,27,68,196,14,29,193,204,213,224,70,18,66,242,207,237,9,227,170,63,0,73,238,191,189,23,79,35,228,54,47,240,184,200,168,228,177,56,187,49,200,199,192,98,188,76,187,94,197,201,5,53,66,198,11,255,184,245,190,66,68,207,40,72,246,190,63,100,252,173,242,29,192,34,81,64,22,18,51,250,255,194,38,239,83,39,222,47,21,79,11,58,236,235,10,40,63,62,221,225,175,88,10,11,255,193,61,26,40,16,250,51,210,184,166,217,164,221,179,91,16,249,77,237,210,46,174,26,171,205,3,51,14,178,252,192,40,191,237,13,195,216,14,40,77,176,223,79,49,255,182,58,20,175,38,230,250,214,251,19,218,42,197,57,35,240,249,28,57,222,78,113,75,187,74,61,79,239,29,73,59,42,186,12,207,195,63,198,73,217,227,55,43,17,252,23,76,174,2,50,17,170,201,48,75,231,244,81,74,181,11,9,15,238,82,240,255,41,55,66,43,2,197,10,186,198,198,92,92,16,28,162,189,24,84,79,49,70,246,87,37,254,174,196,180,74,93,214,3,38,57,49,248,156,36,234,236,69,0,175,228,54,252,60,238,242,42,22,63,68,28,16,54,190,227,252,1,80,5,67,223,179,213,61,62,66,35,43,228,30,241,199,189,184,29,207,62,43,164,203,66,83,192,8,28,8,52,85,11,225,93,47,225,6,14,180,87,21,179,94,239,231,228,188,52,192,226,35,180,202,165,37,55,207,250,77,218,105,37,237,188,249,66,46,5,21,86,61,62,215,50,57,33,116,92,106,73,224,89,76,179,201,7,10,14,50,86,248,91,103,90,12,170,10,75,187,19,4,239,54,186,169,13,14,211,79,193,218,62,69,4,162,33,251,23,38,180,79,108,211,210,39,63,200,11,245,96,46,223,189,227,86,221,0,40,83,90,249,202,242,211,221,213,169,94,174,215,192,42,43,223,47,89,70,45,59,205,35,66,85,229,78,191,70,19,34,1,248,80,30,34,15,193,35,83,240,254,37,82,56,73,238,206,193,166,192,205,234,247,103,239,33,18,241,81,167,106,4,202,53,34,50,52,231,248,170,65,216,177,167,55,18,183,209,253,250,250,251,35,14,243,174,37,177,70,207,176,86,18,227,233,42,236,78,189,84,223,55,92,82,44,202,225,247,221,198,180,248,172,190,62,54,224,182,49,93,187,75,186,46,91,191,20,188,206,177,47,65,53,185,62,184,248,204,35,191,79,57,101,65,243,23,47,47,20,73,97,65,77,91,5,170,83,197,202,252,7,84,209,96,21,48,82,90,204,176,42,252,68,206,197,214,83,226,6,15,31,224,43,215,52,5,45,185,45,199,87,224,206,195,198,202,234,45,186,18,15,1,175,13,93,248,69,21,58,101,217,102,206,203,29,90,74,47,8,193,5,32,21,16,207,250,187,60,198,37,208,54,55,54,26,18,38,37,244,88,43,29,101,111,11,73,18,212,0,169,12,180,225,165,68,219,176,80,182,36,19,37,207,77,197,88,249,100,70,238,61,127,229,230,196,221,252,234,255,92,79,241,4,0,43,19,236,110,3,105,79,97,43,176,92,167,36,207,12,126,6,14,77,63,77,225,49,203,230,52,252,213,166,85,254,168,48,174,50,246,198,188,178,177,248,196,170,61,253,34,207,221,8,183,192,224,55,15,21,106,19,47,196,226,166,191,81,5,82,91,35,40,29,84,92,16,197,237,238,4,84,43,171,247,47,178,44,212,207,33,244,44,21,74,226,233,191,189,91,71,81,56,180,183,182,36,253,201,49,230,208,232,184,182,198,242,240,23,22,241,240,3,201,208,40,196,239,69,52,240,197,255,76,82,247,55,49,28,6,225,247,39,186,48,214,223,39,9,20,184,63,217,194,5,36,239,35,67,2,70,2,198,206,216,36,159,188,59,20,210,241,242,206,23,15,46,9,175,14,57,49,245,69,96,228,34,2,183,74,244,188,194,237,203,39,212,69,229,17,20,25,194,228,228,211,76,26,194,164,195,49,245,233,37,70,202,195,28,192,1,4,229,77,70,167,7,96,66,108,19,214,239,47,194,30,19,178,235,78,166,169,53,161,252,255,3,195,116,209,36,227,220,202,237,2,43,79,226,185,22,90,48,18,33,187,40,27,235,31,16,196,200,9,76,86,74,228,114,238,25,14,229,225,230,63,16,17,215,75,231,237,42,115,39,41,188,225,72,67,178,42,205,233,35,85,244,66,23,223,189,61,116,8,25,220,13,84,51,19,14,205,29,46,36,239,51,251,212,81,1,228,242,40,89,232,179,2,86,193,18,91,248,75,219,179,19,88,181,214,15,181,84,159,42,76,228,172,210,248,215,199,201,252,248,38,22,54,212,89,51,22,237,10,239,43,112,167,224,67,93,209,45,236,231,57,84,78,163,62,238,183,82,17,178,240,45,201,60,194,79,174,254,198,189,245,224,30,207,82,221,237,60,212,207,34,187,165,22,168,173,10,66,184,241,33,218,229,77,47,56,186,167,215,232,197,232,241,76,53,235,36,87,54,15,37,9,200,190,180,184,191,248,164,3,56,244,238,22,31,207,39,232,239,0,196,214,41,206,232,203,39,60,251,58,168,243,192,195,28,187,196,52,199,41,252,16,215,55,13,37,8,87,68,49,11,87,41,48,199,220,226,238,36,242,14,48,215,0,171,212,240,198,71,73,64,67,203,85,237,185,219,52,55,183,32,71,17,23,244,60,206,23,14,186,245,61,77,79,44,73,40,47,53,169,238,246,164,29,229,90,255,65,48,68,43,80,194,166,210,190,253,87,7,222,73,100,212,68,248,182,28,225,97,188,234,42,244,171,31,185,248,47,231,8,184,98,56,228,239,11,4,204,37,93,49,251,252,109,67,206,53,209,49,50,175,179,72,234,33,215,52,82,237,28,25,166,226,41,185,15,0,199,43,68,196,52,79,43,191,249,197,58,236,93,49,244,19,89,16,80,238,24,193,233,219,6,202,1,71,36,207,204,10,57,85,48,45,79,164,229,244,197,95,223,175,226,249,91,71,183,235,236,73,248,42,16,54,238,17,226,208,96,16,78,62,46,62,225,168,12,88,39,50,230,229,178,3,84,49,19,206,64,234,243,41,85,1,85,1,42,234,197,198,19,40,166,73,197,16,222,9,61,182,33,53,173,57,97,39,37,46,199,35,13,197,75,69,16,34,209,15,246,176,215,238,183,15,179,7,81,20,11,52,232,9,49,212,116,94,181,233,154,41,252,255,15,38,188,31,52,74,255,5,251,167,246,42,49,47,45,31,61,226,71,167,47,15,149,171,86,12,252,253,247,86,200,179,213,19,68,241,28,162,87,2,39,33,85,184,224,150,194,215,68,230,217,223,250,209,159,21,226,42,33,26,169,7,235,61,74,182,12,13,196,193,235,196,192,18,165,158,6,214,84,215,195,244,22,79,39,73,199,25,43,216,221,44,8,41,244,59,247,4,232,235,86,44,62,86,222,219,36,193,60,11,219,16,215,73,62,169,151,39,237,65,26,63,231,249,85,183,150,52,109,24,68,70,22,191,231,2,243,33,46,39,59,21,237,191,48,95,13,196,78,47,166,213,8,47,208,55,189,51,83,60,216,173,209,69,205,64,19,247,26,212,186,203,20,64,224,11,43,66,66,215,218,158,42,67,57,10,7,238,197,95,238,6,15,180,194,244,86,229,239,55,27,221,20,226,214,15,177,160,238,186,2,47,219,150,197,165,211,209,227,97,25,47,239,13,237,188,80,76,198,71,255,225,215,218,209,240,6,229,37,192,229,92,146,239,18,39,200,224,247,80,190,92,45,25,24,204,15,213,69,166,5,171,237,78,207,192,230,39,30,184,61,214,182,171,6,242,149,199,161,212,57,96,193,255,251,181,68,79,8,84,214,172,232,34,30,249,52,150,33,41,94,225,68,249,48,1,12,232,222,225,146,40,56,94,181,239,191,193,27,175,163,94,59,67,76,215,223,61,218,69,203,195,246,72,187,58,40,228,148,163,51,167,232,167,192,13,12,28,223,233,32,85,201,222,14,168,60,229,70,195,22,154,48,15,43,231,36,181,75,248,149,76,208,145,246,179,240,95,238,18,185,56,172,47,165,225,49,246,50,247,52,203,1,239,185,35,61,185,52,82,21,45,249,246,4,163,66,181,33,199,49,76,34,226,213,253,27,40,55,205,28,200,25,219,66,223,38,156,39,204,238,69,48,199,87,184,29,61,8,249,38,238,185,227,235,87,193,17,99,192,98,184,38,86,89,70,230,15,21,175,201,5,18,36,237,171,74,12,207,255,13,54,194,211,18,159,159,187,36,49,43,27,173,172,82,76,52,242,61,38,32,181,194,202,242,187,110,243,155,84,11,174,48,8,183,57,31,166,53,8,82,207,84,75,77,184,219,187,226,156,14,153,18,13,61,24,97,28,180,242,38,85,207,211,183,44,45,7,199,58,160,51,191,47,244,172,56,41,70,207,20,208,8,11,19,197,9,189,85,164,71,73,218,206,241,58,45,200,29,239,222,254,204,175,59,195,187,36,37,170,2,0,253,56,193,226,43,209,39,239,221,216,254,168,39,94,188,76,42,222,3,228,85,189,235,224,17,40,31,219,40,180,43,209,232,37,243,58,191,31,11,160,95,49,64,208,5,71,9,211,193,81,240,2,204,32,61,26,40,26,63,189,58,216,197,191,22,250,46,225,72,148,200,232,159,81,27,55,189,193,191,21,182,249,192,93,60,194,56,79,153,68,178,170,186,179,240,244,226,42,63,185,216,211,78,199,192,185,33,29,247,78,78,187,243,51,193,31,234,244,236,55,64,35,237,247,211,244,15,23,77,202,254,73,235,55,191,88,174,23,15,208,215,242,86,150,59,2,38,221,220,16,4,6,196,177,254,81,61,198,249,254,181,190,224,250,29,65,237,194,196,7,90,214,172,235,205,195,49,22,117,41,34,162,17,176,4,60,120,19,185,79,237,24,229,164,76,167,52,78,78,11,92,218,23,166,5,189,250,171,232,54,100,67,4,222,242,216,70,205,250,79,86,19,192,216,68,197,3,71,43,209,213,77,254,166,58,70,75,230,59,55,44,10,190,235,249,209,193,96,188,61,15,39,59,161,32,165,90,17,252,243,225,241,249,167,93,87,94,98,55,249,27,88,190,42,119,209,247,224,44,103,1,89,202,181,18,195,92,64,18,70,56,211,13,173,81,87,69,229,96,54,198,169,153,194,45,41,87,106,66,219,225,62,78,92,63,233,224,173,98,93,39,171,235,167,42,79,209,76,13,8,182,249,207,56,232,231,38,74,20,216,80,33,47,42,239,40,181,233,75,188,218,216,9,70,77,151,154,168,11,79,59,249,73,198,162,1,190,66,245,82,88,162,187,72,9,113,46,39,120,243,235,171,225,234,90,190,75,66,84,160,10,214,101,159,30,51,150,4,73,22,13,36,70,61,23,168,194,172,77,166,250,41,229,164,97,10,67,195,22,254,3,44,75,40,12,252,29,174,37,34,55,24,21,74,78,76,82,184,172,15,38,224,247,94,217,176,13,27,70,159,88,81,56,229,11,246,187,8,74,236,239,79,188,222,217,38,238,4,4,240,56,221,47,255,184,235,70,220,2,22,89,17,22,232,146,26,243,198,21,164,223,6,151,63,255,163,243,82,12,35,35,29,254,225,12,209,211,102,189,204,51,82,119,72,197,18,187,235,23,41,22,88,191,160,241,95,51,203,192,10,246,25,192,7,41,32,222,228,78,247,250,26,77,9,208,185,184,50,162,40,161,14,173,202,139,12,48,46,24,81,189,2,240,74,93,162,243,187,175,44,245,189,77,189,221,178,99,212,66,11,185,217,208,214,18,169,48,187,253,195,56,159,18,179,0,204,31,32,216,84,247,218,60,75,9,47,72,75,46,214,154,240,241,247,14,225,35,11,46,40,217,10,194,208,229,67,44,61,193,241,171,34,93,161,57,73,167,18,175,174,251,210,243,77,54,65,52,43,196,205,31,45,195,1,204,171,173,195,35,222,245,234,189,41,245,84,210,10,85,26,52,64,247,18,43,68,43,167,55,243,5,199,103,223,192,77,32,217,241,67,241,247,197,215,86,2,88,71,93,45,241,217,209,84,229,3,90,218,75,252,76,214,104,163,158,242,35,178,205,219,170,249,180,58,180,92,165,65,23,16,245,80,244,87,31,225,18,187,53,149,81,54,169,50,27,225,31,70,219,45,206,82,37,154,63,226,203,239,224,38,197,80,75,230,6,164,255,23,185,166,188,243,254,26,161,42,220,233,6,229,238,85,235,217,173,81,54,27,166,33,208,36,58,161,41,218,23,220,210,32,248,173,181,53,1,64,235,88,21,176,180,24,255,250,0,14,247,156,2,250,205,167,92,249,192,229,82,220,224,84,182,156,229,250,214,171,62,146,43,152,248,29,161,245,213,36,48,171,233,152,198,188,188,197,228,17,191,235,27,69,190,60,211,26,21,48,62,189,141,3,238,223,235,18,186,13,218,232,65,72,72,36,24,61,88,190,84,184,66,164,24,39,227,5,47,201,175,11,232,185,205,222,49,58,43,238,90,59,84,61,194,187,245,89,83,8,189,199,200,234,5,85,10,50,185,237,195,79,69,187,213,44,41,168,5,44,59,159,63,17,180,174,5,91,92,28,145,183,215,51,203,57,56,218,184,93,230,53,68,250,242,225,245,243,1,66,215,217,36,161,222,214,182,41,240,45,223,188,176,200,100,16,22,194,38,31,188,9,214,234,18,253,216,45,158,165,95,166,2,84,24,16,71,12,152,180,18,179,66,72,20,218,182,3,208,6,91,61,167,245,76,63,32,70,66,37,9,27,232,63,200,224,52,41,43,4,247,209,222,2,253,210,202,220,91,88,250,185,192,237,67,222,32,192,45,11,157,240,13,66,41,71,96,21,208,223,215,44,230,191,87,214,199,5,69,62,231,184,81,199,90,173,196,167,83,230,251,28,203,197,53,7,240,75,16,35,108,166,33,224,216,246,173,58,134,149,206,63,146,26,28,34,91,173,153,92,217,171,214,188,207,72,35,177,178,193,58,65,150,246,30,185,39,0,54,198,248,148,215,72,8,215,206,59,78,57,129,255,173,59,70,214,24,162,229,43,54,140,149,6,69,244,55,43,13,22,174,159,36,38,147,150,11,55,174,221,96,66,2,172,145,32,145,83,252,217,171,191,152,18,197,206,43,147,6,205,41,47,193,152,195,207,11,77,32,169,0,131,82,58,196,26,255,187,140,225,7,178,170,213,161,223,172,229,201,23,55,221,51,148,27,189,212,33,28,55,175,232,173,21,69,184,184,178,55,193,11,151,169,163,183,233,226,233,67,250,189,38,254,28,10,11,75,225,214,231,207,59,220,209,250,242,22,31,189,108,231,232,39,178,64,42,7,182,73,152,71,89,203,157,194,177,37,195,219,191,22,54,70,109,237,90,75,31,215,219,52,100,62,48,2,237,172,170,49,173,60,233,75,36,226,202,177,178,53,150,63,201,49,211,160,45,230,18,48,1,185,188,154,87,32,184,15,192,13,253,65,37,247,149,171,43,95,189,143,201,15,176,17,71,87,76,32,249,60,187,155,248,73,195,43,19,81,248,243,57,41,249,206,86,84,216,10,212,203,207,142,185,209,34,169,161,209,62,50,82,84,162,9,152,46,216,250,166,154,51,72,229,189,11,31,56,56,33,81,240,203,172,186,210,48,180,80,161,64,234,171,4,3,56,237,5,35,161,250,251,244,203,255,7,74,34,229,182,161,170,193,200,168,239,209,82,68,41,171,178,194,251,43,17,36,208,188,221,18,172,246,210,212,71,252,170,212,11,249,208,17,219,153,240,253,46,58,0,201,75,42,172,77,29,131,144,244,175,185,167,155,141,214,74,60,30,3,217,43,215,61,226,9,15,254,62,251,179,214,245,231,168,78,53,212,34,16,32,218,75,74,6,181,222,175,174,198,37,204,162,240,185,252,150,206,152,202,28,250,185,64,185,210,4,9,204,39,71,23,47,6,76,50,6,79,150,16,231,172,169,53,194,255,200,208,162,27,58,221,149,237,231,218,68,168,194,150,159,53,53,236,7,204,163,65,137,153,184,180,21,192,2,46,206,241,33,29,80,140,73,178,242,240,43,233,207,188,65,218,230,25,242,23,223,226,69,220,219,239,158,239,248,0,205,45,225,158,43,63,155,63,13,81,40,161,26,5,166,64,246,59,221,221,182,229,73,38,33,73,174,237,202,66,45,226,227,160,84,162,51,229,176,241,210,206,53,34,246,241,248,182,159,186,231,255,6,189,12,61,59,208,7,76,185,206,18,74,250,234,58,188,49,66,177,206,30,78,251,22,146,226,249,49,156,6,208,11,82,149,21,178,22,211,195,221,159,218,190,170,12,182,21,177,240,234,46,248,163,178,239,228,70,201,32,218,14,241,7,50,65,28,20,5,160,8,177,159,63,190,201,192,161,158,69,32,216,70,171,29,6,191,51,65,251,205,87,175,72,83,161,135,239,11,226,232,247,53,2,76,146,163,178,39,152,234,220,191,13,85,232,161,155,244,181,1,45,80,159,172,34,22,42,188,52,72,26,167,245,155,23,20,149,218,242,28,179,232,175,219,31,70,239,140,224,231,150,35,71,233,51,25,238,68,228,52,25,233,202,70,208,46,236,80,166,255,167,5,199,242,185,230,57,77,9,14,216,78,77,216,175,162,50,38,169,185,179,251,45,182,191,193,185,170,200,2,17,55,183,7,70,46,220,71,57,253,49,226,186,73,218,228,150,82,160,215,172,48,222,187,46,254,27,64,186,205,31,213,221,215,36,92,174,150,78,249,28,4,162,77,211,21,48,154,201,227,90,166,168,82,54,60,179,173,214,218,221,204,80,202,13,207,98,188,209,8,153,55,76,180,4,183,4,16,232,39,180,199,170,182,168,166,26,237,63,0,183,48,169,249,95,35,86,91,234,51,55,215,42,22,0,173,154,16,201,215,56,51,194,60,25,172,14,165,161,42,58,92,182,27,21,229,14,155,231,95,51,54,26,158,76,223,176,225,160,236,61,70,228,81,30,179,15,206,236,216,30,70,57,206,17,81,220,234,61,218,254,181,211,198,12,98,203,49,60,32,5,235,206,242,233,210,225,224,82,59,218,62,169,65,80,54,251,20,60,152,183,178,2,68,57,34,241,240,14,228,164,1,48,2,161,199,46,151,250,230,168,154,22,23,10,173,197,240,212,41,199,50,242,51,173,241,54,224,170,54,222,36,16,182,202,200,64,170,14,70,205,145,220,189,141,198,247,5,9,39,195,156,160,54,242,235,162,44,157,4,227,209,18,9,41,225,222,73,41,21,55,147,0,28,179,70,156,244,174,214,2,25,175,188,48,77,156,214,32,188,29,212,252,71,162,154,171,159,77,253,201,34,45,202,152,204,24,45,53,50,236,241,36,145,67,60,241,23,198,8,209,8,244,89,47,165,75,80,53,248,253,159,244,65,199,62,14,187,38,239,8,34,207,174,37,231,250,221,1,230,57,63,37,81,82,164,183,187,153,69,67,237,62,21,146,48,52,200,242,72,24,28,74,231,77,183,17,155,73,73,73,64,184,236,204,67,67,209,83,175,59,76,217,22,15,188,217,47,11,230,61,182,29,10,80,11,246,72,197,243,251,23,76,20,22,222,10,95,241,175,26,181,155,63,245,83,211,219,223,185,164,41,1,104,89,171,180,177,248,247,235,173,16,171,241,248,159,205,248,77,215,201,209,230,73,174,217,238,180,59,61,45,71,74,44,178,195,175,188,166,210,189,225,70,60,208,59,7,95,230,147,49,239,73,213,82,154,173,158,255,160,205,242,2,71,151,243,246,244,215,201,51,184,197,234,206,34,90,13,74,26,249,5,41,230,85,226,229,13,199,8,208,30,20,246,90,72,46,63,7,245,51,201,181,50,23,178,169,22,41,52,194,199,1,60,200,58,34,23,184,244,34,83,249,211,188,56,42,183,55,36,251,71,227,190,216,4,34,24,194,76,20,212,145,35,21,52,44,204,180,254,74,206,71,162,70,227,249,212,213,28,255,148,181,228,22,212,221,37,228,1,253,221,69,44,6,210,232,237,87,22,158,83,60,183,202,28,236,12,98,179,26,43,68,233,175,225,229,72,53,208,66,214,164,7,8,86,65,201,250,208,200,111,218,216,25,211,160,246,6,189,233,28,187,34,204,199,247,12,74,57,182,56,210,31,210,85,92,252,248,237,228,253,32,17,17,156,20,231,1,61,157,72,219,20,12,171,2,155,52,78,215,17,81,210,249,245,217,170,241,85,224,86,74,214,200,64,235,56,93,192,70,30,174,54,58,9,5,58,23,5,251,29,45,201,253,60,111,145,15,64,97,42,141,166,65,219,201,13,59,18,184,179,65,147,142,1,186,234,55,170,31,160,191,237,245,83,138,60,184,130,85,235,167,73,243,249,237,173,34,198,229,93,77,95,133,95,168,218,217,237,77,211,18,20,200,184,134,150,166,191,53,135,8,221,89,218,252,158,92,220,16,131,178,255,106,88,191,144,154,191,28,230,159,5,168,198,202,12,159,47,25,185,101,253,217,224,154,151,44,42,245,78,97,206,7,168,149,94,171,231,158,248,52,247,201,173,149,75,57,223,188,191,72,226,188,13,217,2,222,99,155,67,17,254,88,9,186,174,22,26,43,17,135,207,176,160,149,223,157,209,251,196,2,52,158,155,247,241,61,252,148,224,37,63,190,188,168,192,18,222,106,147,138,186,84,166,244,216,163,57,172,191,90,242,170,165,195,134,10,205,233,157,165,206,214,175,174,74,89,205,28,167,171,18,195,177,1,55,51,35,40,78,21,4,190,146,181,225,168,152,101,1,142,210,74,246,237,169,84,74,46,191,67,167,211,31,222,155,177,9,180,93,208,76,192,204,183,75,55,146,159,84,230,153,205,0,52,205,9,192,84,0,221,86,215,152,178,47,224,92,255,32,88,0,99,197,17,50,31,92,241,71,202,66,42,217,34,159,153,204,207,198,55,149,232,12,204,218,166,93,80,141,88,234,40,146,191,204,76,218,156,177,24,245,149,23,95,5,244,24,83,218,178,51,187,252,22,201,65,171,50,235,229,57,252,155,21,31,78,93,51,152,243,23,230,170,158,144,210,60,108,206,227,66,175,146,172,189,183,227,21,166,36,165,29,251,239,152,16,157,13,209,203,57,30,213,65,2,184,36,236,230,87,27,148,182,30,9,42,60,29,192,223,83,80,77,135,180,3,227,202,85,207,144,5,40,255,202,68,3,23,46,169,83,231,197,194,37,178,248,67,20,217,21,177,243,103,179,243,168,40,25,87,192,40,228,217,239,246,213,227,211,211,155,233,153,176,199,169,27,35,89,228,243,245,5,100,7,241,216,58,27,236,152,48,82,149,217,4,180,3,224,23,234,189,177,105,14,28,201,185,24,185,84,251,240,242,170,0,151,212,60,47,156,179,92,254,196,62,239,93,36,48,45,60,69,5,239,11,149,19,178,35,51,77,169,88,172,72,195,79,251,7,184,150,139,1,203,239,207,78,71,45,65,34,180,0,189,180,66,230,247,178,238,5,57,129,108,245,11,101,29,10,44,239,62,217,177,88,93,186,237,232,87,9,52,252,167,238,145,15,68,54,188,182,193,11,23,180,169,33,219,175,3,145,190,65,0,45,139,216,54,32,58,185,37,4,194,254,212,240,24,160,19,235,60,203,209,9,19,240,41,159,232,34,189,69,171,14,215,133,159,60,249,242,210,72,189,253,219,41,242,10,255,41,130,76,48,155,195,216,186,63,27,48,15,14,203,241,179,0,65,18,81,36,22,12,237,28,22,182,46,253,251,150,146,32,182,144,23,74,226,5,5,211,207,75,248,247,236,65,139,79,65,250,253,241,182,70,209,255,160,21,194,5,182,230,27,44,145,151,60,181,167,250,171,78,104,248,228,234,77,48,165,154,41,196,189,88,236,66,207,75,234,153,174,77,221,198,163,199,59,6,240,53,171,59,83,156,77,1,35,219,48,62,45,160,233,82,179,140,9,9,30,43,236,70,1,173,89,210,200,240,207,188,12,29,219,206,67,189,166,176,189,34,138,176,39,180,29,206,198,87,33,187,225,65,56,189,231,236,203,153,68,146,171,206,38,73,238,235,70,89,47,82,232,186,134,168,164,1,161,136,220,8,64,150,179,75,40,63,67,53,242,221,149,40,143,145,154,105,27,107,75,137,0,11,239,223,198,154,67,175,246,181,68,148,89,232,53,211,226,49,38,148,217,176,143,58,76,167,13,107,220,96,11,75,153,29,54,171,183,76,0,193,148,32,35,14,255,198,220,179,205,56,171,5,39,249,251,29,221,133,55,63,26,206,145,22,196,15,245,227,166,219,173,211,10,179,207,170,139,59,192,31,51,69,132,163,232,178,4,23,233,186,178,99,34,231,86,91,188,60,82,252,92,42,244,82,225,79,249,253,84,107,232,93,235,211,88,215,244,146,10,84,40,72,237,247,187,182,212,206,68,27,159,31,16,24,18,212,210,235,28,215,192,19,64,91,252,41,203,255,220,28,183,146,209,89,234,2,190,248,156,46,88,160,69,93,245,236,88,151,65,6,82,59,147,188,147,47,228,206,195,184,42,19,161,202,130,238,42,30,221,76,169,213,91,31,222,198,190,178,136,82,72,130,9,234,13,96,93,247,237,225,130,185,23,14,70,146,234,17,93,251,145,61,190,156,101,80,221,82,17,171,181,61,234,225,214,83,27,68,60,95,236,120,175,125,39,39,220,129,188,29,67,54,103,29,33,38,0,17,198,193,197,236,207,76,184,55,222,23,245,166,222,97,142,61,60,85,66,219,89,168,7,232,96,227,87,163,231,49,61,44,205,59,177,73,2,93,47,230,199,42,162,62,75,173,156,96,152,210,174,149,208,131,142,71,37,36,50,176,4,156,59,163,77,151,211,0,192,85,70,255,94,167,167,100,6,50,245,166,77,4,217,61,141,70,58,249,139,235,239,62,224,169,60,205,241,149,177,48,171,45,250,47,165,11,148,163,73,194,199,142,197,39,3,143,86,234,240,172,231,190,181,28,156,7,101,170,67,87,158,39,67,183,235,217,251,218,39,43,100,236,41,54,212,14,202,78,236,190,242,66,228,57,199,221,16,72,159,145,131,75,2,171,170,175,196,92,240,236,81,88,234,78,83,209,194,86,157,62,227,200,192,234,94,213,176,159,44,153,255,86,253,171,70,66,180,248,2,70,138,39,78,183,160,14,20,171,152,163,236,20,230,4,68,198,176,20,112,52,56,139,222,222,10,184,206,51,230,19,243,164,245,8,228,104,25,5,149,217,89,226,242,73,220,73,8,241,151,238,75,5,23,153,46,168,184,90,40,2,160,82,187,23,198,144,41,2,203,232,202,184,58,209,226,93,242,32,47,148,72,115,152,16,169,220,119,145,6,42,167,198,142,18,184,54,197,252,146,32,13,176,4,253,157,78,170,1,234,47,44,1,220,180,145,101,36,156,59,162,22,5,144,248,19,88,199,144,85,61,71,37,222,221,6,51,94,0,40,62,36,155,12,130,213,14,26,59,10,43,73,168,187,95,32,82,42,173,93,167,140,233,246,64,238,173,48,85,213,120,151,32,193,131,34,191,162,241,162,211,35,23,10,214,252,58,213,210,219,33,248,160,34,147,62,100,110,208,50,25,59,246,8,20,8,211,215,180,63,213,57,223,235,15,52,134,69,74,233,42,88,110,146,215,148,244,134,67,24,230,69,4,252,157,153,175,159,155,148,19,68,126,109,208,247,211,184,43,138,218,217,107,50,253,231,228,255,13,19,55,183,32,192,119,129,112,103,77,251,138,155,82,186,247,24,249,73,183,91,82,61,77,92,109,234,63,62,140,57,247,184,10,241,28,192,249,25,234,32,37,183,28,36,201,33,253,241,92,194,185,4,167,58,21,223,179,89,236,255,72,0,234,135,19,132,215,64,159,167,242,39,194,240,76,182,101,188,141,97,206,168,212,245,213,27,54,214,170,65,16,72,219,62,83,243,25,40,239,3,7,13,94,19,213,133,136,81,174,18,207,59,21,61,154,161,155,70,190,78,216,78,252,46,196,75,90,213,178,116,76,71,76,6,40,194,238,40,170,200,248,136,225,203,67,187,60,104,81,62,207,50,94,210,189,69,176,255,222,178,229,36,79,14,5,53,83,170,204,61,238,223,108,185,37,87,188,147,136,214,53,248,94,153,46,4,196,82,64,196,199,80,147,57,188,132,102,163,69,54,190,185,207,134,38,85,147,194,81,81,234,55,58,48,34,73,161,74,165,77,211,23,217,23,107,118,113,129,161,48,247,175,65,63,15,178,248,8,201,19,26,50,75,109,185,172,246,194,177,10,167,135,27,28,50,197,187,8,3,82,238,10,23,108,156,230,137,170,196,75,131,239,41,206,90,67,248,64,4,242,189,15,155,37,147,95,241,24,242,15,225,196,176,9,126,218,35,146,146,241,168,231,209,35,151,150,164,240,131,68,236,29,151,31,73,170,20,24,3,193,165,214,56,45,210,209,14,21,157,134,43,72,62,155,93,186,194,22,15,4,61,180,39,157,27,249,188,185,22,55,204,207,213,173,55,81,254,42,214,188,194,250,79,56,247,193,206,65,73,35,8,28,170,173,81,225,62,243,46,212,82,217,37,171,61,78,200,79,41,187,96,38,90,177,221,153,64,40,185,159,32,50,26,30,135,154,247,209,14,242,219,65,148,154,11,70,98,9,168,195,43,252,3,209,24,187,56,91,205,132,137,172,245,94,41,183,239,52,240,26,16,23,244,165,27,46,69,18,111,210,66,162,137,31,182,39,30,150,77,46,186,166,170,166,166,151,93,1,96,56,30,95,40,37,87,1,255,62,231,159,150,236,234,230,125,31,19,73,16,138,154,1,41,64,168,250,13,166,228,200,226,30,201,239,229,251,158,8,251,33,230,185,87,240,11,57,111,61,206,211,90,201,67,204,122,139,210,194,235,158,90,182,79,193,251,200,12,141,165,2,7,248,130,89,210,209,178,38,207,24,247,23,135,153,212,178,194,181,246,98,160,49,136,188,4,254,166,221,241,138,90,234,73,175,74,87,89,6,237,62,240,7,6,145,31,53,228,148,73,85,78,187,227,169,14,58,7,190,202,132,176,234,235,247,170,32,210,203,61,37,41,236,26,48,159,232,196,45,143,216,244,194,205,110,35,179,21,194,95,225,145,10,16,160,152,188,226,12,95,54,32,81,237,247,175,226,31,102,28,164,28,153,35,5,189,16,29,226,220,234,168,93,106,168,94,237,110,229,215,8,41,40,244,86,65,8,112,23,65,190,26,181,184,64,216,175,26,108,102,228,215,204,155,134,186,78,5,27,149,213,142,161,42,192,149,18,241,85,198,238,40,94,198,4,148,20,226,6,71,19,220,233,4,152,38,252,214,199,210,0,229,93,54,239,178,66,174,56,6,26,176,253,85,195,239,226,80,14,130,255,238,64,186,217,151,45,225,16,204,3,203,227,188,181,163,140,202,187,101,217,44,88,68,86,26,165,224,134,50,13,58,143,122,161,96,214,160,13,134,24,175,57,66,38,27,141,140,47,16,234,90,242,91,31,222,166,68,242,236,40,58,65,83,145,166,206,229,50,72,192,2,22,56,239,10,152,172,33,62,141,169,90,176,40,220,57,176,198,211,148,181,93,82,9,74,179,213,97,194,168,52,209,90,217,200,225,0,182,251,60,50,140,26,197,99,230,98,88,190,199,76,111,2,143,200,167,85,143,35,190,2,251,146,69,171,31,13,78,190,52,12,215,69,88,220,150,107,21,226,85,171,136,194,9,227,206,72,42,219,225,255,64,34,80,194,63,29,240,178,73,197,149,92,69,146,135,8,159,91,2,158,229,162,4,109,164,56,11,155,177,177,156,104,146,198,84,197,187,234,82,206,40,243,0,201,64,129,233,218,254,38,69,70,51,254,69,166,151,134,250,207,208,226,179,38,225,165,56,78,13,193,239,19,230,156,205,27,1,253,195,237,178,39,61,161,28,237,86,230,188,145,57,142,205,34,79,243,241,70,54,247,176,210,241,44,202,39,251,1,237,163,158,251,87,92,86,78,24,64,206,231,72,65,183,38,84,79,29,102,70,184,99,49,94,163,197,215,134,13,48,98,55,10,234,70,54,81,154,169,135,248,28,101,180,60,198,61,243,31,201,202,200,99,47,199,216,23,70,21,2,166,248,187,59,172,169,75,69,218,190,172,166,51,6,6,165,205,181,252,163,145,132,225,248,63,214,3,80,147,239,64,175,87,46,152,25,206,221,185,46,154,253,34,162,213,156,59,59,41,165,2,28,29,53,181,199,99,248,56,44,151,56,96,236,228,4,5,5,19,5,2,194,41,163,182,247,48,142,235,250,67,177,218,129,56,201,252,222,233,85,247,204,227,185,27,38,74,176,201,211,178,38,228,162,68,68,42,44,34,55,173,81,217,87,199,66,230,43,86,55,73,215,29,164,171,31,42,8,190,48,172,68,49,176,191,90,75,172,251,133,33,5,145,94,251,55,219,178,211,131,194,250,161,44,207,5,234,94,10,16,14,41,174,35,41,52,154,177,250,69,236,93,167,137,158,62,155,180,214,51,255,79,60,79,40,15,140,220,253,6,245,199,233,26,212,54,216,228,213,157,60,98,177,217,202,148,205,31,42,219,191,224,223,15,111,167,1,208,57,26,222,74,238,210,227,56,236,216,180,166,17,191,253,190,149,23,169,190,81,221,38,33,163,152,57,36,152,205,239,90,10,75,225,186,158,133,250,163,181,250,161,69,19,149,108,203,201,44,92,37,251,47,219,30,162,155,66,234,171,231,76,245,84,197,1,13,66,14,212,86,221,28,63,169,45,27,159,94,30,75,17,57,182,173,204,74,36,21,211,6,166,215,208,152,181,255,183,143,2,15,96,244,45,240,173,194,155,14,229,43,37,201,97,243,220,41,158,29,147,71,147,2,40,29,246,213,165,82,18,191,208,138,44,148,145,238,172,177,177,57,194,176,154,244,160,53,210,148,1,11,19,84,172,179,74,220,17,22,180,61,157,226,147,45,145,200,171,11,74,29,31,186,66,50,108,26,220,209,164,73,48,10,205,232,141,40,146,189,162,222,135,178,183,1,194,26,241,234,225,188,40,167,19,12,191,155,218,59,118,137,195,185,203,61,11,32,15,243,206,31,168,193,237,28,44,240,42,151,34,131,19,35,35,195,66,74,191,56,171,62,143,192,78,83,251,145,199,23,14,217,72,111,212,178,222,27,143,10,68,188,7,133,53,221,136,21,225,51,71,184,236,23,5,55,222,3,246,184,242,181,234,4,241,170,13,89,138,159,226,227,41,144,157,204,153,75,143,141,190,181,217,239,227,195,81,9,179,209,210,160,177,10,40,139,220,176,214,217,252,92,74,233,18,129,166,218,8,86,14,58,20,134,167,187,38,176,43,245,79,6,188,225,206,73,82,199,199,179,50,0,203,18,24,254,253,206,244,31,165,220,12,39,34,56,196,43,229,224,250,204,60,34,240,177,183,223,214,5,183,197,204,49,205,49,199,168,24,235,209,20,166,154,8,17,3,160,153,248,224,160,185,205,25,169,222,24,193,232,227,31,206,185,168,4,196,232,171,233,186,254,81,251,240,0,34,178,184,187,184,152,242,240,165,158,44,155,245,2,167,181,28,5,2,236,223,17,239,0,205,38,227,231,61,170,200,49,207,145,238,178,235,147,251,43,182,163,39,254,189,166,182,252,171,27,37,232,163,230,163,196,24,30,3,181,5,156,166,36,161,31,198,230,253,218,237,246,189,182,65,238,244,28,24,157,17,14,253,19,11,12,207,189,224,186,155,183,58,236,38,32,35,233,31,54,46,215,217,206,47,197,13,220,47,22,39,194,171,62,238,161,202,232,49,31,144,243,193,42,236,213,162,158,250,245,237,184,243,4,187,180,247,232,181,218,177,26,237,175,213,56,158,170,26,34,253,48,50,32,249,29,55,244,198,150,0,153,37,56,151,146,31,231,38,12,228,185,16,154,193,244,174,32,227,178,162,218,179,18,49,200,249,193,214,166,207,254,40,226,254,6,41,3,187,220,11,156,237,22,233,203,141,243,57,63,241,17,8,37,181,0,175,240,248,180,196,64,29,183,210,195,159,163,249,228,204,40,224,3,80,16,242,190,23,195,161,193,138,42,254,175,0,245,62,211,204,232,23,215,42,237,202,10,238,162,27,194,209,7,144,165,247,15,31,32,224,165,60,189,239,247,177,188,18,144,181,251,138,238,185,4,0,26,0,243,246,60,231,19,247,26,46,140,24,36,20,172,244,214,170,249,208,12,41,64,26,228,2,244,216,156,62,51,242,248,250,14,7,168,14,41,156,8,41,16,33,17,171,187,5,51,3,203,25,202,52,36,213,23,17,145,219,174,42,233,2,191,202,17,36,59,177,26,8,220,41,177,237,174,175,167,221,233,41,245,224,7,13,10,208,241,219,21,34,51,54,32,247,209,152,254,218,185,20,229,8,37,226,222,23,37,237,220,154,175,236,77,157,222,37,210,36,169,245,180,16,214,211,165,6,219,26,217,1,179,22,11,235,162,177,233,16,206,24,21,161,164,252,50,34,37,237,24,199,184,68,172,156,197,19,160,249,165,49,149,248,169,58,252,207,179,21,240,7,158,196,212,233,164,219,188,250,177,60,12,183,45,35,9,151,27,240,251,9,153,12,39,204,253,60,156,200,197,224,1,231,164,184,45,154,192,83,18,230,184,214,189,189,230,179,241,208,52,181,23,246,242,199,16,202,27,207,29,175,191,45,227,34,182,238,185,5,225,6,234,30,191,165,200,161,16,205,241,39,253,224,203,178,142,205,165,246,21,166,237,172,226,223,16,206,53,214,211,197,22,197,64,244,253,250,24,208,30,240,174,224,175,241,237,201,248,191,133,174,9,195,238,157,29,5,196,193,222,37,142,225,206,181,78,158,150,233,73,183,205,153,235,139,148,199,169,137,196,222,8,25,159,164,163,231,22,168,22,213,164,14,161,217,194,165,6,254,9,193,221,132,30,243,214,254,5,10,178,212,29,39,192,237,173,178,164,246,158,159,203,6,234,244,207,155,166,190,182,181,174,31,39,253,188,145,149,208,208,190,54,164,217,217,25,153,46,236,182,218,253,3,199,47,216,54,165,249,156,14,44,250,218,224,25,201,175,144,234,198,242,20,207,154,2,241,19,182,199,212,176,29,50,15,194,30,17,204,7,164,25,229,183,142,197,158,72,183,147,168,214,29,47,44,161,222,245,231,176,250,9,196,1,191,232,232,197,19,4,248,13,176,225,49,71,229,144,204,80,34,211,232,153,186,16,5,250,167,14,254,194,233,42,173,157,182,175,204,23,221,214,38,21,243,19,233,171,129,177,244,46,238,212,39,221,206,46,217,48,227,185,162,186,235,8,251,168,8,147,228,1,79,254,168,144,245,215,170,24,194,242,30,51,227,229,169,227,237,36,225,30,27,184,32,0,240,21,198,167,0,26,16,26,17,250,241,240,36,174,254,42,189,0,41,28,38,23,27,242,150,176,31,254,18,156,174,145,183,171,197,233,203,250,23,243,222,196,239,235,234,245,249,217,177,226,189,64,230,155,230,35,248,4,253,218,154,26,173,28,220,7,239,214,235,164,232,51,89,179,171,188,169,179,224,3,18,184,37,198,191,49,209,197,170,39,192,221,20,38,0,222,255,244,16,51,179,253,17,147,196,211,216,236,178,178,246,225,247,30,42,46,53,163,172,45,177,17,37,228,72,229,45,246,224,170,191,244,37,160,254,24,205,251,18,150,44,206,49,18,157,47,220,38,41,252,147,241,18,230,186,206,174,219,31,180,221,50,62,195,250,216,25,171,83,180,221,252,10,212,231,21,215,165,243,12,17,177,172,41,237,155,229,46,250,174,168,246,250,50,201,216,27,167,1,55,190,191,239,234,234,209,225,25,214,234,8,43,76,255,249,176,173,239,11,250,214,218,225,229,197,26,66,16,197,29,26,181,44,6,50,18,237,247,6,239,209,198,215,222,80,198,229,190,45,164,242,178,223,217,165,24,163,254,237,254,204,152,203,198,245,191,188,37,193,171,225,28,36,172,50,182,13,223,4,178,229,185,176,228,247,72,213,6,167,8,162,225,201,213,245,196,67,59,15,22,19,36,223,97,224,23,16,249,6,240,134,211,205,234,26,183,206,222,223,243,148,208,37,53,11,181,37,62,27,29,247,192,193,181,194,253,236,249,163,28,26,49,24,51,251,196,165,159,174,235,35,141,242,156,41,246,23,0,248,17,198,165,7,28,38,1,213,239,55,225,151,254,52,208,202,209,238,246,177,168,188,210,169,68,217,203,236,195,7,13,227,32,250,28,228,233,46,226,176,110,37,211,191,199,220,195,167,17,54,168,33,227,217,94,163,195,173,23,170,205,39,23,198,51,159,68,153,173,175,210,33,51,77,46,51,199,82,78,30,207,61,19,180,65,197,86,249,191,154,1,244,69,62,236,228,31,241,15,158,190,248,50,58,54,226,212,50,250,195,189,181,52,15,28,198,255,189,239,170,202,0,44,178,73,236,7,247,216,197,220,37,218,251,19,234,16,47,206,194,60,251,83,29,22,15,61,214,24,210,59,171,42,154,67,49,88,37,78,44,24,12,6,255,22,18,43,213,3,89,234,195,52,227,38,181,47,214,183,200,62,251,48,64,20,235,9,48,247,81,222,176,28,46,227,218,24,216,174,29,9,76,18,68,246,243,66,157,194,14,16,213,53,236,204,12,70,236,229,1,209,87,20,41,75,233,203,52,12,212,30,6,244,84,39,249,5,234,206,251,31,51,17,244,242,227,43,195,213,165,58,171,46,61,225,64,55,45,200,176,49,166,222,16,32,193,7,246,3,72,205,170,84,53,7,195,217,217,35,193,11,223,48,194,14,92,224,254,199,244,72,16,49,176,232,249,37,212,71,196,74,90,204,250,57,69,49,250,254,47,64,193,220,252,39,169,79,42,25,51,52,47,46,9,13,180,169,179,36,41,22,18,62,160,17,238,48,230,174,194,203,239,222,166,249,196,253,226,237,11,189,239,49,252,220,198,181,171,161,219,73,239,230,205,193,155,237,203,17,232,52,155,247,214,49,191,53,6,51,188,178,215,230,185,37,16,185,16,62,223,246,11,190,183,167,218,63,10,4,44,37,223,62,232,63,253,217,168,224,29,171,16,168,4,212,228,179,23,17,0,53,171,22,204,93,46,215,195,4,171,246,30,65,240,191,51,66,245,6,171,67,253,237,63,58,15,172,34,177,205,215,200,208,175,198,216,204,56,189,226,79,205,183,222,32,197,5,70,183,238,183,227,57,201,36,99,2,230,229,184,47,51,244,2,34,249,230,63,230,3,58,13,30,201,235,66,63,34,251,202,209,29,83,31,0,64,227,58,205,36,191,47,229,67,207,60,219,211,70,9,241,213,186,176,45,10,235,239,79,32,60,206,62,226,217,245,23,173,242,216,207,244,16,249,11,204,220,69,46,191,35,231,37,49,241,13,2,180,27,241,55,19,245,211,192,16,44,210,161,6,43,207,231,238,239,183,216,213,200,61,22,195,8,50,54,51,227,9,240,252,167,33,244,231,187,52,54,158,201,24,161,190,196,189,167,32,204,187,35,7,206,177,186,42,175,45,241,215,200,41,184,48,37,232,15,42,198,4,75,208,45,255,213,194,187,225,59,191,18,205,186,54,171,72,221,250,254,240,196,25,248,172,2,197,43,190,39,200,250,9,200,45,253,234,178,11,230,245,165,254,220,252,162,39,175,185,57,17,239,21,62,253,229,41,67,251,198,211,1,207,46,23,199,73,23,217,204,164,61,39,54,230,44,180,182,207,177,52,7,39,213,180,15,204,59,11,229,7,181,226,17,243,242,90,209,6,236,253,28,8,61,75,234,221,0,215,68,25,40,55,175,56,203,1,195,212,53,202,58,45,170,199,65,223,81,52,185,200,61,9,11,16,55,72,243,14,199,27,255,47,11,209,49,1,219,58,218,3,220,26,227,230,12,154,50,36,54,59,232,34,201,193,11,188,215,247,72,68,60,1,63,81,36,179,196,24,50,245,237,44,235,244,231,204,194,172,13,13,246,102,47,32,238,25,210,214,206,98,27,210,182,238,31,80,73,21,211,201,46,8,247,206,12,220,47,35,11,213,179,62,187,100,196,51,77,69,255,13,219,7,236,31,181,177,75,62,247,171,25,202,218,199,30,211,57,72,238,255,215,36,223,62,18,218,185,52,219,162,0,244,62,82,26,44,230,235,238,228,15,43,41,195,247,30,229,183,38,241,26,19,31,6,15,22,61,169,6,181,160,217,40,201,1,35,194,24,201,40,153,36,205,7,23,237,227,228,239,30,50,49,239,183,6,25,171,36,4,156,206,18,227,56,192,61,197,63,234,71,191,217,238,87,196,216,220,37,15,244,41,247,238,233,233,170,251,149,38,250,38,19,239,173,173,166,164,212,172,202,165,56,179,250,45,81,1,4,26,189,206,48,239,246,53,181,199,244,196,165,196,191,7,182,174,19,24,251,60,23,202,72,7,192,177,240,154,16,197,39,0,24,23,187,60,0,163,41,177,190,28,215,41,177,55,250,29,182,238,157,3,8,177,223,169,243,30,246,32,17,246,2,219,249,25,82,64,246,196,208,27,60,202,149,209,180,38,117,59,6,208,47,226,162,47,102,236,30,223,35,50,251,177,52,244,17,202,54,179,23,227,75,222,219,16,18,23,43,94,220,226,230,215,173,242,174,67,90,24,76,229,212,44,29,23,222,231,199,179,250,251,59,89,253,94,222,250,57,14,78,222,73,41,187,188,183,164,197,188,85,182,252,34,9,204,17,224,183,25,49,210,114,50,218,36,213,42,7,62,64,225,176,193,86,4,245,248,28,247,251,211,70,190,9,207,158,65,5,172,3,8,25,253,68,44,7,66,45,227,22,202,243,165,31,191,103,187,252,36,220,210,229,15,57,71,247,38,36,4,27,227,13,5,81,213,88,202,145,8,225,79,18,200,55,189,12,222,4,247,191,45,4,227,215,172,230,13,255,38,201,39,46,15,6,154,197,193,41,212,157,57,240,37,164,33,220,2,178,1,206,52,174,223,224,207,7,25,16,23,9,50,245,231,38,220,55,180,36,169,40,202,253,247,195,13,155,149,207,239,166,26,26,228,17,6,172,195,32,68,60,228,204,170,211,217,50,163,234,150,200,196,199,64,189,237,220,8,247,205,224,12,149,170,19,235,233,40,4,22,191,45,232,228,161,61,235,43,60,197,250,52,40,44,8,216,6,247,198,226,231,10,0,179,11,224,188,208,35,249,1,50,25,253,103,48,202,253,239,220,35,195,193,171,174,196,29,186,17,216,250,241,34,54,200,54,34,34,60,51,37,185,207,6,53,248,227,252,67,23,155,236,44,153,17,57,184,233,12,250,27,235,37,192,210,209,237,31,37,59,99,172,246,16,179,255,167,34,247,247,33,60,48,247,2,241,211,184,30,172,44,72,55,22,34,25,37,60,236,194,250,167,7,179,58,23,34,28,204,242,92,49,242,202,211,236,77,217,0,240,202,239,233,211,18,41,195,224,50,253,233,30,15,217,246,215,255,24,57,246,165,12,63,30,250,25,38,66,35,13,195,241,236,61,192,239,233,33,239,251,178,200,145,189,200,222,37,46,200,4,198,149,234,166,14,49,40,178,218,43,30,15,223,170,201,17,245,186,204,22,244,52,214,16,185,183,20,9,39,177,215,73,247,149,1,172,5,199,2,19,40,181,86,216,14,174,176,239,247,62,183,196,51,253,26,36,240,7,253,237,43,250,161,34,195,213,167,31,76,9,227,46,50,253,38,247,232,9,16,35,57,25,188,72,173,251,191,61,22,50,18,55,33,29,186,7,236,52,172,43,204,32,22,163,250,224,37,255,54,5,184,179,201,60,251,15,179,210,255,201,229,245,23,40,198,190,185,235,10,250,187,2,231,177,34,172,201,164,49,250,170,15,246,241,231,194,214,240,24,75,87,213,211,206,21,237,169,249,78,251,248,196,186,41,18,250,42,56,241,202,242,70,163,161,3,223,49,255,189,45,171,61,34,59,148,252,11,24,173,6,224,101,207,236,193,10,30,59,22,220,212,214,59,54,180,176,19,64,244,5,207,25,166,60,24,208,11,204,200,253,67,38,183,209,58,31,246,53,63,238,16,196,39,8,38,247,189,14,229,29,14,73,158,230,230,0,197,70,244,38,29,182,39,1,43,18,251,208,220,213,59,7,224,248,232,171,84,2,66,227,9,222,217,6,188,192,12,39,6,187,228,225,187,166,80,180,238,34,6,41,32,224,198,55,39,226,203,230,32,4,179,228,76,239,223,37,185,53,192,25,188,2,155,220,203,245,58,220,184,0,191,42,38,183,10,8,62,246,150,37,227,253,209,168,219,229,229,231,18,197,240,226,9,1,227,231,173,183,185,23,26,90,186,241,24,4,224,2,187,62,157,157,211,196,49,230,192,201,213,186,252,7,48,230,240,42,21,168,252,7,240,182,57,36,34,150,23,217,10,4,175,42,231,221,66,232,255,0,228,161,204,29,154,221,83,252,154,136,134,219,53,174,227,94,74,189,22,66,73,10,37,168,159,161,51,228,34,96,224,15,178,211,212,49,135,174,149,100,244,223,63,61,94,237,26,170,102,164,160,228,26,232,31,215,60,32,159,95,166,168,212,197,18,227,6,74,222,212,163,58,52,82,225,43,88,223,110,42,53,82,89,96,251,6,82,190,86,250,53,228,248,209,88,25,78,47,86,93,40,91,201,193,81,141,145,194,228,201,203,187,239,201,49,235,152,13,77,73,58,166,144,198,182,76,150,38,2,136,91,144,41,1,34,168,146,171,236,138,58,169,247,53,176,90,7,191,227,190,224,49,209,173,199,211,170,170,134,252,20,51,57,39,175,63,46,188,194,185,11,83,217,187,156,94,247,80,215,84,203,139,184,152,35,91,144,154,164,100,167,64,54,245,63,166,199,53,82,157,58,1,231,14,58,83,90,162,249,167,79,178,57,185,68,2,39,227,237,207,255,247,42,33,84,179,52,52,64,181,147,50,51,51,231,194,13,175,0,146,66,94,246,10,148,63,20,168,214,55,36,217,187,93,58,28,94,239,153,79,89,244,219,96,191,134,84,96,188,229,38,245,224,40,210,219,56,77,231,177,176,177,52,77,118,249,228,225,250,159,0,70,49,215,220,69,185,98,222,158,166,145,169,62,69,147,51,74,12,195,100,245,5,55,167,197,206,235,187,14,47,159,36,32,16,217,14,51,154,244,34,196,18,227,90,156,19,243,34,135,228,89,95,246,50,211,162,65,241,45,49,57,229,0,79,216,156,92,158,210,194,81,95,59,216,4,181,18,18,156,93,229,47,189,39,196,186,239,38,223,50,33,196,141,217,245,214,179,63,40,11,57,245,46,48,50,196,250,255,243,90,158,145,70,55,80,6,34,19,82,70,244,146,42,12,35,48,215,165,25,141,188,94,156,2,96,20,15,236,132,34,72,38,182,91,79,36,68,74,33,93,54,140,239,49,232,226,33,77,190,92,37,21,19,147,183,182,157,158,0,210,225,61,76,154,232,135,73,140,150,161,32,7,4,27,203,70,50,154,173,173,38,57,166,154,251,196,91,95,221,238,247,79,195,174,84,151,183,51,212,251,250,224,159,95,198,80,2,173,197,191,56,19,25,142,41,142,108,211,238,70,226,91,179,97,155,67,14,244,181,48,32,150,54,33,147,189,253,86,167,53,83,4,65,247,8,6,252,11,166,168,1,218,0,40,173,62,195,220,194,233,12,237,96,254,239,96,75,195,227,204,7,199,250,218,151,68,24,32,150,41,85,220,147,157,244,245,141,17,151,93,191,182,29,53,84,38,149,53,167,163,56,21,17,27,244,242,39,60,189,77,35,18,73,156,182,231,212,2,0,4,49,27,141,68,194,172,77,252,199,203,18,182,225,222,89,200,5,252,165,147,135,163,194,33,43,94,98,168,213,25,147,67,5,25,175,53,254,217,167,228,156,226,53,238,246,206,79,191,248,134,41,30,201,82,49,185,22,193,82,191,36,189,46,187,84,107,202,220,21,60,71,154,95,20,148,33,242,35,169,30,94,5,90,159,66,51,54,23,247,151,95,222,31,2,247,8,31,53,166,44,31,10,243,56,77,233,133,47,171,90,35,101,183,13,26,84,78,229,82,156,222,201,211,244,61,170,168,217,214,204,150,94,255,208,237,21,28,232,8,71,37,80,226,161,28,197,191,85,188,158,95,193,245,238,207,53,44,210,142,252,190,4,78,75,149,208,145,143,81,81,136,230,45,15,215,42,249,45,239,48,133,32,166,84,103,95,168,234,43,196,4,107,33,3,253,63,218,216,5,206,40,46,135,67,231,18,67,205,67,35,91,19,95,92,89,160,44,174,43,87,0,92,227,201,65,23,83,6,241,27,61,24,93,52,161,110,50,57,59,218,151,141,76,231,192,236,172,193,40,70,168,27,159,34,7,202,90,105,3,86,21,81,20,175,37,74,64,180,26,197,58,213,156,160,169,157,12,255,194,31,29,218,25,134,45,59,206,203,72,179,40,229,84,79,58,19,231,214,62,188,135,216,143,77,8,133,21,143,51,193,79,61,181,197,246,241,75,38,227,95,176,74,84,252,85,144,251,74,13,175,145,176,29,190,139,201,105,28,199,37,231,76,66,149,121,85,214,77,38,57,133,71,135,35,159,77,152,157,209,179,219,23,180,176,248,81,154,39,70,157,7,251,209,199,44,204,44,228,55,64,214,95,86,132,164,103,192,182,44,95,196,84,156,11,86,192,177,69,151,186,58,4,94,16,228,10,216,174,218,219,103,227,78,30,237,133,181,202,9,96,153,185,172,140,158,83,180,180,70,229,158,230,241,165,31,87,255,220,139,189,10,166,39,150,16,233,24,235,152,239,6,177,0,3,215,171,204,225,247,206,73,54,203,195,165,46,212,89,247,34,237,67,215,98,84,94,83,191,150,72,140,241,181,94,222,25,66,143,2,195,47,234,52,144,250,229,79,144,168,19,146,246,153,50,15,16,148,145,81,21,152,161,17,2,52,3,66,190,148,45,205,226,93,238,194,77,180,182,45,39,216,162,169,74,60,37,100,188,236,252,244,17,193,49,87,64,71,211,68,137,61,1,67,224,165,203,225,232,146,245,150,233,158,166,183,89,148,27,56,180,213,31,195,215,39,43,17,62,198,182,220,204,219,167,69,204,76,97,173,88,24,156,88,242,179,94,28,140,53,254,229,141,88,78,178,34,206,196,186,192,227,193,88,67,50,171,229,86,90,40,24,186,88,147,150,246,35,224,230,15,138,68,176,238,31,82,189,37,231,163,222,83,51,19,22,201,95,252,169,27,137,100,240,141,216,237,196,210,76,173,24,220,187,30,66,109,171,62,32,168,59,51,144,88,227,26,189,79,215,75,51,217,16,193,74,1,132,79,253,59,254,141,226,250,242,16,20,61,35,167,165,199,23,65,143,79,162,34,181,23,184,218,49,16,246,24,209,18,37,210,176,231,249,162,227,17,222,174,17,194,36,156,161,242,160,193,196,54,22,10,233,229,88,66,37,49,133,186,171,28,45,23,60,145,220,179,64,96,161,133,218,21,215,80,37,252,206,21,48,62,221,67,74,204,145,28,11,83,220,192,51,35,19,43,172,42,75,183,251,79,8,90,67,148,223,214,175,1,40,36,205,63,27,196,242,60,160,52,138,246,237,88,175,152,168,38,62,249,79,19,26,206,86,136,14,222,105,248,75,51,148,10,209,216,145,74,33,195,13,76,24,226,143,104,75,45,7,50,27,82,231,45,12,83,202,204,246,28,86,90,0,85,22,215,43,199,217,175,151,83,179,144,154,59,85,6,157,182,212,193,67,203,132,140,47,201,45,21,78,42,177,0,106,198,134,82,7,147,64,20,245,150,225,139,245,58,90,241,37,135,139,165,198,10,204,186,150,28,5,4,251,205,95,214,156,19,210,252,44,177,40,13,227,237,71,248,190,195,244,69,235,40,79,79,243,228,21,214,190,217,197,50,161,27,45,48,74,68,42,143,238,200,190,176,28,201,158,57,185,16,25,52,214,88,37,8,97,140,5,147,148,158,155,74,179,29,159,50,150,208,50,176,82,84,173,58,144,135,156,191,172,37,26,8,56,163,155,29,252,242,80,151,86,22,176,196,49,149,32,202,184,175,212,41,65,80,28,63,12,58,1,87,248,238,40,30,174,97,165,29,62,250,242,242,251,208,225,59,227,254,69,93,108,53,42,216,139,213,153,41,249,70,86,63,5,117,237,203,74,85,204,5,192,30,69,251,236,55,7,44,184,12,46,148,180,12,233,47,39,205,51,17,27,148,11,223,160,234,116,36,79,9,239,125,87,210,185,79,223,159,160,31,227,103,44,17,206,62,191,213,141,235,148,199,65,189,222,70,77,149,191,167,235,84,3,124,243,33,27,159,82,171,134,168,174,4,211,176,251,132,18,252,169,69,63,44,197,64,80,137,212,237,59,254,8,185,95,5,23,75,173,244,17,171,215,242,77,240,34,156,82,46,132,234,226,148,213,177,221,145,76,35,204,3,43,166,49,160,14,248,231,12,19,199,11,179,155,248,67,186,161,83,144,229,132,99,234,215,4,55,197,31,181,254,220,25,211,60,181,167,249,213,222,86,255,78,209,79,253,230,51,202,162,138,192,54,157,44,8,188,22,58,188,13,67,195,57,76,170,33,220,185,139,241,174,176,37,157,159,92,15,1,149,252,18,15,83,149,211,182,26,189,250,67,81,37,199,159,167,98,205,242,219,7,247,7,23,222,251,210,168,50,158,230,59,80,12,70,255,37,138,254,164,246,136,49,80,29,170,9,135,174,230,157,186,230,237,219,186,249,56,85,214,240,43,79,193,59,63,214,27,202,229,188,59,218,52,167,253,171,240,57,238,213,87,30,150,74,46,228,214,73,239,216,39,82,82,66,150,254,20,76,9,11,162,220,145,190,140,76,139,179,172,92,137,242,78,20,173,211,255,221,177,137,198,80,86,36,79,16,34,0,66,48,29,80,94,212,181,8,52,190,13,153,188,246,145,43,71,217,15,29,85,69,40,150,196,51,19,51,53,245,248,157,36,154,38,252,90,63,242,25,209,89,10,239,173,52,13,108,50,95,135,80,61,246,169,12,172,142,59,216,87,66,231,74,21,164,92,140,149,218,59,90,170,88,78,38,95,221,250,168,70,87,32,84,87,57,71,67,79,1,57,187,170,168,185,198,35,18,67,210,47,42,212,212,246,147,79,230,219,85,43,188,167,9,223,231,171,81,32,199,22,157,88,218,17,193,10,34,181,151,71,79,248,92,46,12,19,204,201,40,153,238,184,170,56,20,40,210,162,127,184,191,81,22,136,60,216,30,83,58,166,75,205,246,53,234,94,209,143,195,32,254,31,134,49,213,172,162,87,17,244,177,12,66,192,169,222,69,182,108,239,88,209,33,222,28,5,16,216,197,244,178,42,35,168,60,83,165,218,181,244,219,12,94,243,4,1,153,155,9,1,222,119,224,174,26,80,251,6,69,251,12,151,56,15,239,194,64,198,30,66,186,70,178,206,178,38,136,235,21,20,77,69,114,181,11,110,143,36,242,144,2,10,24,169,49,241,42,163,215,206,42,222,179,181,228,44,86,59,64,69,158,5,9,35,101,15,150,2,1,92,190,207,235,207,41,160,100,85,15,238,161,160,108,243,212,155,25,252,252,151,0,133,88,192,58,38,6,58,189,169,221,168,26,56,70,149,170,215,35,212,64,173,8,142,81,35,28,233,67,218,93,228,191,183,46,73,195,231,203,58,88,27,158,22,158,35,217,206,167,33,31,10,178,18,11,145,54,231,58,221,187,43,8,195,16,8,194,225,180,72,53,89,206,50,43,102,215,229,247,172,20,196,218,133,0,191,219,180,22,51,30,73,27,14,78,57,204,40,71,169,170,189,80,88,106,93,164,97,67,91,172,241,156,189,63,202,208,204,67,92,100,196,46,73,84,3,79,219,3,31,84,191,230,190,39,169,194,105,184,151,18,21,65,217,225,191,61,35,229,27,83,213,203,6,211,156,244,174,220,170,199,51,246,187,69,52,201,205,201,198,13,0,22,196,57,247,221,20,209,27,205,177,50,212,95,192,178,85,9,152,250,220,61,29,33,38,165,72,184,105,35,95,73,14,190,32,6,228,52,71,166,228,3,163,240,62,194,234,162,96,49,177,222,42,237,47,214,164,202,247,47,201,69,175,4,251,61,174,7,206,240,51,1,192,50,134,16,206,150,4,247,244,17,5,182,237,216,250,170,208,34,210,87,26,47,210,55,182,64,192,51,70,59,249,203,197,59,228,196,148,50,56,96,200,3,6,166,169,150,168,94,210,6,246,94,80,212,187,143,235,168,74,228,90,239,209,152,239,77,162,57,50,103,87,173,167,230,72,13,166,88,238,139,33,226,73,66,247,156,97,152,198,10,38,208,95,199,192,8,47,87,191,42,85,50,76,170,216,50,216,254,33,75,75,185,170,0,56,72,188,68,161,192,24,157,87,252,137,184,70,239,222,8,240,206,5,73,2,205,159,44,10,75,107,225,206,199,52,234,41,82,150,44,245,222,71,144,80,5,22,250,202,194,176,201,83,190,14,94,234,170,147,47,149,113,107,219,47,40,230,0,214,194,189,216,168,13,202,91,241,76,22,73,207,88,74,155,6,202,68,185,37,236,2,87,81,46,251,62,253,39,223,246,230,162,5,229,14,11,26,6,163,154,228,67,148,33,225,77,57,67,184,153,56,100,156,90,197,49,170,174,222,5,214,33,196,87,61,10,52,37,175,231,183,161,236,63,14,59,249,173,201,7,172,233,32,233,151,19,151,167,106,224,138,53,88,184,94,103,13,167,214,182,150,28,227,23,90,205,66,38,227,133,96,207,89,18,55,16,14,92,170,84,217,14,160,53,35,194,35,177,26,56,32,190,46,35,53,161,5,99,246,202,208,220,58,42,28,162,10,33,84,8,241,250,55,8,191,202,157,78,53,235,158,222,52,221,190,151,193,183,87,196,193,214,73,236,176,35,153,69,49,227,214,137,85,174,60,238,168,189,153,50,241,185,20,12,105,3,6,24,12,214,80,203,143,182,51,57,183,188,80,16,16,7,165,15,68,174,166,47,241,204,17,75,233,51,209,230,250,162,53,78,6,171,168,176,43,162,89,217,51,231,202,184,173,166,48,179,32,116,23,12,211,232,8,187,74,170,95,72,180,216,174,190,52,24,93,207,84,57,189,214,148,70,8,154,46,215,137,173,74,26,187,239,209,202,255,0,241,37,189,75,191,34,212,163,219,156,203,218,39,213,153,185,23,178,237,88,216,246,39,203,49,192,164,2,227,3,21,35,25,159,179,164,80,24,26,164,38,251,229,185,3,105,1,232,188,241,137,209,156,52,74,208,72,187,87,149,61,82,62,25,53,57,2,150,59,38,217,84,163,107,87,101,48,151,83,17,253,43,41,174,25,194,87,187,53,167,102,246,169,88,149,84,209,78,22,62,105,146,1,60,153,22,151,162,226,164,157,1,58,81,154,214,11,206,215,85,67,60,12,217,226,20,97,74,9,69,211,73,29,234,89,30,236,36,90,10,202,176,22,182,81,140,233,52,218,248,41,243,248,204,201,161,62,1,49,220,240,19,80,65,238,58,54,51,41,46,26,73,232,12,40,1,248,220,30,55,50,27,225,252,7,37,70,250,14,29,48,239,231,40,46,22,241,59,1,241,5,77,255,8,225,55,18,56,13,37,45,55,59,46,6,10,54,46,28,16,63,59,18,220,220,90,54,49,37,38,247,28,46,22,227,28,230,5,58,15,233,11,243,26,92,35,230,67,41,50,28,25,37,8,35,217,246,25,23,69,32,16,237,33,233,46,38,11,254,2,42,249,238,254,6,3,69,16,233,48,9,224,16,214,7,38,252,251,38,30,8,63,220,36,44,2,30,49,232,15,251,64,244,53,33,22,1,46,252,45,46,23,22,241,31,44,64,2,43,60,4,27,87,17,4,50,49,241,245,5,24,245,224,78,45,38,0,23,27,251,25,48,20,45,57,3,36,245,8,42,38,1,217,66,90,23,38,46,1,51,39,47,47,46,23,32,241,34,245,22,24,11,39,44,34,249,70,43,252,239,248,38,33,32,234,67,101,13,249,1,22,4,239,48,24,8,223,10,64,2,55,43,33,48,89,78,38,58,67,22,69,229,4,4,25,35,37,99,59,68,239,55,59,230,245,46,22,39,227,42,70,252,26,21,240,236,62,64,11,78,77,34,19,6,38,36,18,31,233,110,97,253,38,4,74,42,44,32,44,43,219,20,13,19,253,235,237,55,22,76,237,29,72,1,2,254,72,16,233,15,46,58,17,61,215,40,55,31,56,101,55,248,18,86,72,64,14,33,7,34,51,39,19,28,82,12,242,14,78,13,12,227,24,21,14,73,214,60,61,240,245,73,13,27,11,17,59,12,5,233,18,240,74,37,5,8,70,39,22,43,41,242,35,25,253,102,58,8,41,55,11,242,13,84,16,251,231,28,2,62,37,227,234,36,77,12,41,255,41,56,50,246,52,51,23,203,240,40,11,20,10,253,21,43,46,77,32,20,54,50,1,251,48,49,46,232,32,46,228,48,249,237,229,246,13,255,231,13,243,104,15,57,0,48,47,248,65,80,241,43,32,76,246,34,31,220,36,39,33,17,22,55,8,250,50,50,253,53,233,34,229,93,74,46,224,79,73,48,23,78,16,250,47,16,41,32,237,25,236,62,62,36,55,1,0,38,13,6,32,35,17,40,46,48,45,3,214,76,14,23,18,96,240,9,10,13,20,34,244,241,252,33,23,66,2,70,45,252,236,12,43,242,249,228,251,28,7,20,41,39,9,43,76,22,6,16,231,86,26,65,39,9,22,8,74,100,42,46,5,235,35,34,52,245,6,249,250,112,28,246,2,67,41,18,19,72,252,4,25,83,51,68,50,15,15,243,18,42,242,4,35,24,244,15,70,16,62,241,28,110,18,9,35,53,78,236,20,43,3,50,227,101,56,28,62,238,40,234,72,39,24,1,77,226,62,248,85,41,53,232,10,34,9,54,34,1,11,2,0,24,53,19,45,28,39,69,20,38,4,23,71,37,26,2,81,25,251,59,21,33,63,36,213,55,83,20,248,66,45,37,11,27,11,33,23,12,66,25,2,46,27,255,72,56,11,237,65,225,34,233,32,7,25,21,213,104,50,41,237,2,63,49,46,54,33,232,250,85,251,37,53,23,243,29,94,81,250,18,55,230,5,5,59,63,254,6,20,50,62,253,215,3,80,19,7,40,242,36,44,93,29,83,25,252,22,248,78,77,25,253,4,250,34,17,11,67,15,0,31,55,32,22,226,6,64,37,65,58,233,2,244,19,79,79,244,23,37,18,53,105,59,0,59,5,59,14,27,57,69,46,6,91,73,24,226,28,47,31,12,83,35,3,32,102,47,86,28,238,33,254,84,37,11,1,72,21,43,242,81,52,2,2,232,49,18,36,11,68,58,10,49,103,252,223,51,27,60,78,47,244,57,54,33,114,21,23,31,231,70,228,12,46,47,233,236,43,72,26,252,11,58,251,7,22,51,244,44,38,57,15,6,0,19,15,108,68,8,27,91,16,57,254,85,75,37,238,13,84,67,244,243,64,23,8,91,78,21,45,7,41,31,95,47,247,250,32,35,110,4,58,91,15,67,221,19,35,15,51,232,93,42,58,239,51,59,33,36,52,248,2,37,83,77,57,251,248,16,15,33,103,23,50,54,218,14,250,62,18,255,11,201,5,31,42,24,11,250,13,52,80,20,246,27,14,16,43,65,59,40,100,13,21,35,70,2,251,54,25,69,12,3,92,12,14,9,41,24,68,54,10,9,41,21,245,6,12,26,51,4,68,26,11,47,67,23,17,28,17,247,50,6,35,8,43,207,48,26,235,215,238,49,248,248,248,46,225,246,29,9,34,51,20,18,38,77,38,255,38,25,46,45,232,252,242,57,253,223,241,15,241,39,9,26,249,24,255,10,34,69,250,50,7,239,253,63,48,38,25,2,34,59,13,43,33,40,31,247,22,217,36,37,238,34,255,13,30,36,57,237,246,56,245,34,20,249,59,34,22,61,8,237,60,26,1,0,26,254,248,62,22,254,255,61,253,217,2,244,239,47,57,255,236,1,51,252,38,2,255,246,12,68,38,39,43,18,231,20,55,56,49,48,12,31,246,43,28,213,55,30,53,37,14,49,32,62,54,56,72,38,42,34,6,17,42,45,65,23,249,45,27,11,240,69,45,29,17,44,4,228,19,29,49,6,3,235,247,9,31,31,61,6,70,56,24,41,62,29,31,77,239,37,12,253,21,33,8,203,79,24,64,33,77,84,65,29,41,47,31,35,63,53,61,24,72,19,253,75,31,61,76,17,47,31,240,36,80,16,63,8,72,254,108,228,53,77,40,10,66,42,70,52,22,42,25,37,43,9,62,91,20,3,4,77,230,43,54,51,38,25,100,35,252,232,71,46,42,235,88,235,35,17,31,1,244,222,29,11,43,28,36,246,232,206,62,218,214,225,1,251,255,37,44,236,230,238,25,243,39,238,68,232,38,231,33,4,229,10,1,7,26,246,82,20,235,236,45,254,235,227,74,235,62,47,33,220,244,253,233,249,254,216,31,42,222,15,2,68,204,247,253,248,66,51,243,194,199,244,21,230,38,203,253,17,250,63,43,229,10,198,233,237,219,33,249,47,26,13,250,4,230,236,1,5,2,238,28,228,1,12,7,19,255,244,55,46,39,247,225,232,205,228,24,20,28,249,230,225,250,228,229,0,233,206,46,15,1,9,242,24,236,233,222,235,2,210,1,237,35,241,32,22,237,202,208,239,200,226,23,38,226,42,34,23,194,29,232,15,242,247,9,236,193,231,253,221,222,35,1,9,236,241,0,231,182,9,29,238,220,247,35,4,223,254,232,70,243,14,30,7,55,47,241,199,247,241,233,221,19,4,247,24,4,67,19,1,202,223,37,244,29,255,251,41,5,25,11,68,231,243,20,11,36,52,34,210,245,1,222,22,245,14,59,224,40,15,244,46,206,246,52,49,14,225,46,0,227,14,244,43,253,232,227,241,250,24,243,2,7,13,27,235,16,26,255,223,7,255,64,217,201,221,50,26,223,195,85,222,2,250,47,15,15,217,28,27,33,49,24,14,13,232,253,29,49,17,16,48,36,248,47,229,43,35,89,228,20,24,31,221,36,241,33,21,33,28,32,16,229,32,7,240,31,61,76,254,222,22,224,251,246,229,211,18,33,233,215,254,50,52,234,25,207,12,40,30,5,19,11,209,41,15,209,1,8,45,36,9,250,251,236,242,4,237,6,30,193,242,195,250,251,17,254,33,248,234,191,241,233,214,25,217,17,238,227,32,23,251,60,26,5,32,30,31,222,225,163,225,252,201,214,233,210,14,228,24,185,253,193,49,215,228,216,26,249,24,200,214,248,38,3,208,22,246,39,226,216,7,169,244,245,19,253,229,218,21,241,9,181,251,253,25,3,18,227,253,51,252,217,234,211,17,11,16,210,211,19,229,204,43,209,22,251,20,201,36,215,203,20,28,245,193,227,234,246,202,226,249,50,53,229,200,204,33,55,193,34,233,22,241,221,24,211,197,207,188,227,208,242,201,219,24,210,8,222,36,208,255,254,206,62,253,213,212,249,39,48,219,221,13,250,251,19,228,164,220,192,229,21,255,211,19,9,13,206,0,233,52,238,210,17,241,19,56,209,17,225,241,25,21,234,254,247,255,209,0,209,218,229,248,250,242,235,254,246,9,207,219,20,40,223,28,221,253,13,9,250,17,15,37,50,222,228,229,50,36,248,30,219,205,248,37,73,1,243,225,248,230,18,22,250,2,42,21,20,53,39,27,250,20,54,53,27,241,225,0,227,21,43,1,27,34,253,15,23,214,14,38,99,21,5,45,52,218,202,200,219,1,214,245,78,225,238,18,81,21,22,216,65,254,255,234,15,234,180,213,222,36,14,237,26,26,213,32,7,14,226,221,4,217,235,17,8,245,254,5,55,251,15,249,45,219,12,247,226,247,247,227,183,28,0,233,241,206,198,236,208,40,3,254,216,239,218,3,6,251,237,203,238,0,241,17,235,11,252,0,245,234,230,178,159,16,223,249,254,203,243,10,218,27,213,215,216,223,9,255,235,214,176,235,34,229,19,188,17,7,2,253,170,40,171,208,190,246,210,223,42,0,208,180,162,28,209,246,213,3,30,17,196,229,214,222,223,194,215,197,28,254,179,4,162,10,190,175,154,13,212,215,18,224,210,220,214,249,203,169,244,199,13,226,158,160,202,249,254,181,212,175,16,252,222,222,222,239,166,210,196,25,221,215,33,209,219,240,215,236,153,0,236,191,230,25,218,193,222,9,251,197,253,237,253,245,219,239,216,231,176,217,182,40,173,223,53,216,215,232,3,245,242,4,207,191,247,250,245,204,176,252,48,187,251,11,50,241,216,13,213,53,191,237,23,248,245,196,67,238,12,252,10,21,171,10,209,9,0,222,243,186,3,23,215,191,226,204,34,216,225,226,13,252,200,244,1,11,22,202,44,243,37,33,48,214,212,233,30,242,238,240,11,240,229,250,242,207,15,245,61,236,240,216,13,253,10,229,66,5,227,220,229,8,13,0,31,255,38,228,246,29,227,232,252,229,219,229,238,218,250,43,228,42,212,244,5,28,214,254,238,17,252,26,20,0,1,215,59,225,252,221,0,20,252,225,204,217,6,6,37,10,4,252,233,20,240,15,230,39,7,205,240,16,254,205,224,211,14,198,208,15,246,242,223,233,217,19,185,5,217,225,28,249,250,237,206,236,203,213,177,235,220,224,129,235,185,9,212,194,219,172,241,17,239,8,247,248,238,240,142,237,195,220,14,253,232,248,232,18,4,12,159,36,190,200,183,235,208,211,21,209,193,180,218,45,183,219,31,198,9,8,151,250,187,209,239,255,3,190,20,14,235,217,131,255,244,194,190,30,216,184,234,246,161,225,200,21,210,193,217,231,249,239,186,183,203,225,242,198,226,226,28,236,162,254,185,24,221,173,203,239,167,231,219,188,171,193,210,231,193,248,205,194,21,235,200,208,187,18,21,245,28,185,245,18,251,239,178,20,10,215,215,8,243,235,237,231,238,231,2,217,218,17,2,16,211,211,216,217,214,25,239,200,23,209,249,240,205,20,249,255,240,233,244,15,246,4,13,3,12,22,19,39,3,251,255,22,220,219,6,225,198,214,251,252,41,227,231,240,247,19,2,5,217,6,225,219,28,9,6,28,39,233,36,249,206,35,253,2,16,222,26,231,19,35,0,29,37,252,240,34,16,237,249,213,36,29,19,41,249,40,231,12,7,20,198,46,9,18,226,34,243,239,213,239,249,220,50,45,33,248,0,19,214,246,227,220,43,238,22,0,13,237,236,215,7,252,188,254,17,29,41,254,14,19,222,252,208,23,57,235,221,27,40,246,14,218,1,208,223,219,15,223,219,10,29,222,237,40,211,223,17,225,18,17,216,241,209,239,221,246,245,206,2,214,255,237,2,253,30,232,247,193,189,253,184,254,241,26,1,6,203,225,190,225,227,208,226,12,231,191,179,14,235,209,33,228,237,220,249,2,207,24,220,208,214,234,226,172,0,244,189,236,180,40,180,188,230,190,245,225,220,170,172,221,16,185,227,246,246,246,226,9,8,33,235,202,202,250,249,207,50,202,162,215,248,234,227,227,227,200,13,234,249,197,222,13,43,232,44,200,18,6,246,247,248,6,205,218,255,248,222,205,48,216,184,206,216,12,175,5,2,230,225,255,200,168,193,244,18,227,5,240,14,224,213,9,255,248,10,215,222,228,191,11,50,25,8,0,200,37,199,253,245,25,40,7,204,242,12,251,33,15,255,34,23,248,223,224,30,243,241,206,225,239,235,212,9,229,20,25,233,14,21,203,16,223,237,247,42,2,15,28,33,24,246,248,250,3,254,15,42,10,50,5,243,6,243,222,5,29,252,238,55,16,17,12,229,229,42,242,225,11,16,217,61,241,49,225,244,230,233,253,227,213,230,26,33,35,9,32,234,206,205,249,226,15,211,244,10,246,22,27,1,226,17,250,10,9,2,16,37,19,25,214,40,249,18,205,33,8,245,224,63,15,253,235,229,235,36,227,43,9,35,25,65,227,212,255,1,28,53,249,232,31,222,251,42,240,234,13,232,253,19,218,48,205,224,16,223,11,234,220,210,26,229,28,11,195,7,27,9,12,38,233,7,226,2,228,62,11,249,226,50,236,15,230,8,211,190,20,22,251,6,0,23,217,221,22,57,218,234,26,243,228,253,2,3,250,3,20,21,3,173,236,6,234,183,196,249,0,180,232,2,214,17,211,230,9,6,0,1,240,221,6,251,194,243,200,52,255,9,9,16,19,196,205,8,223,219,233,20,251,248,20,227,249,188,176,1,194,11,212,243,171,187,