const unsigned char object_model[]={28,0,0,0,84,70,76,51,20,0,32,0,28,0,24,0,20,0,16,0,12,0,0,0,8,0,4,0,20,0,0,0,28,0,0,0,140,0,0,0,228,0,0,0,56,171,1,0,72,171,1,0,224,198,1,0,3,0,0,0,1,0,0,0,4,0,0,0,186,83,254,255,12,0,0,0,28,0,0,0,60,0,0,0,15,0,0,0,115,101,114,118,105,110,103,95,100,101,102,97,117,108,116,0,1,0,0,0,4,0,0,0,144,255,255,255,26,0,0,0,4,0,0,0,8,0,0,0,111,117,116,112,117,116,95,48,0,0,0,0,1,0,0,0,4,0,0,0,194,83,254,255,4,0,0,0,14,0,0,0,107,101,114,97,115,95,116,101,110,115,111,114,95,53,0,0,2,0,0,0,52,0,0,0,4,0,0,0,220,255,255,255,29,0,0,0,4,0,0,0,19,0,0,0,67,79,78,86,69,82,83,73,79,78,95,77,69,84,65,68,65,84,65,0,8,0,12,0,8,0,4,0,8,0,0,0,28,0,0,0,4,0,0,0,19,0,0,0,109,105,110,95,114,117,110,116,105,109,101,95,118,101,114,115,105,111,110,0,30,0,0,0,80,170,1,0,72,170,1,0,52,170,1,0,32,170,1,0,12,170,1,0,244,169,1,0,164,169,1,0,20,169,1,0,4,25,0,0,116,24,0,0,100,6,0,0,20,6,0,0,132,1,0,0,84,1,0,0,252,0,0,0,244,0,0,0,236,0,0,0,228,0,0,0,220,0,0,0,212,0,0,0,204,0,0,0,196,0,0,0,188,0,0,0,180,0,0,0,172,0,0,0,164,0,0,0,156,0,0,0,148,0,0,0,116,0,0,0,4,0,0,0,182,84,254,255,4,0,0,0,96,0,0,0,12,0,0,0,8,0,14,0,8,0,4,0,8,0,0,0,16,0,0,0,40,0,0,0,0,0,6,0,8,0,4,0,6,0,0,0,4,0,0,0,1,0,0,0,235,3,0,0,12,0,24,0,20,0,16,0,12,0,4,0,12,0,0,0,127,61,249,202,174,196,200,241,2,0,0,0,2,0,0,0,4,0,0,0,6,0,0,0,50,46,50,49,46,48,0,0,34,85,254,255,4,0,0,0,16,0,0,0,49,46,49,52,46,48,0,0,0,0,0,0,0,0,0,0,244,59,254,255,248,59,254,255,252,59,254,255,0,60,254,255,4,60,254,255,8,60,254,255,12,60,254,255,16,60,254,255,20,60,254,255,24,60,254,255,28,60,254,255,32,60,254,255,36,60,254,255,114,85,254,255,4,0,0,0,72,0,0,0,186,206,129,157,108,182,4,78,214,216,146,146,114,79,119,127,166,187,236,127,9,68,149,208,224,62,96,154,107,155,12,229,7,193,187,129,229,107,1,94,81,75,127,113,223,101,51,162,129,104,72,156,214,137,2,108,142,251,6,2,247,127,205,126,188,111,11,129,231,187,105,191,198,85,254,255,4,0,0,0,32,0,0,0,44,255,255,255,123,253,255,255,45,252,255,255,146,250,255,255,165,250,255,255,2,1,0,0,190,250,255,255,12,6,0,0,242,85,254,255,4,0,0,0,128,4,0,0,230,5,202,244,213,242,156,239,245,64,251,175,85,230,30,79,97,219,105,103,240,135,178,202,156,144,219,185,111,22,209,243,108,0,227,106,206,161,111,204,38,248,198,93,89,48,61,174,70,200,195,86,191,129,185,50,255,221,177,106,39,27,220,254,187,107,60,48,61,158,212,67,110,174,22,98,253,142,100,190,57,26,88,2,130,91,206,214,217,77,29,78,77,213,223,241,174,222,217,92,240,107,51,143,94,127,75,105,55,11,30,85,84,248,227,78,148,245,184,72,105,157,13,91,5,8,22,53,123,202,224,187,217,2,244,220,85,250,52,200,58,78,184,99,237,129,18,62,192,154,183,102,138,182,45,60,107,154,79,45,85,167,51,250,48,221,164,67,66,2,206,250,104,91,22,69,228,186,245,220,102,75,228,98,60,5,77,48,119,32,95,179,178,3,27,28,50,204,203,238,152,83,15,212,229,208,59,197,183,252,71,43,213,11,63,36,60,149,51,106,99,151,92,239,33,219,156,2,247,155,206,208,243,25,171,120,127,142,38,206,157,187,51,208,118,162,219,153,133,140,111,27,207,225,135,254,139,214,76,66,90,217,81,157,187,76,46,153,169,8,37,242,19,174,200,93,216,10,162,202,160,65,193,156,53,66,126,78,161,158,23,255,135,165,209,47,85,28,135,61,46,111,115,40,174,236,20,1,241,188,81,201,165,159,209,181,250,244,106,103,28,163,242,122,63,32,35,27,67,164,165,188,228,245,142,64,111,217,100,112,113,41,127,10,235,194,60,223,45,166,236,133,22,205,253,236,105,105,214,31,40,177,102,93,144,221,208,240,243,130,177,186,43,27,249,176,59,199,235,37,76,142,165,16,178,51,106,68,230,168,187,31,241,129,37,22,245,158,166,67,218,107,183,182,72,247,62,13,151,181,69,59,229,150,216,205,32,151,68,51,210,172,8,64,157,229,60,5,47,154,109,167,247,77,167,239,124,87,71,129,244,24,111,254,191,186,228,1,166,115,227,223,36,156,41,22,74,43,90,44,78,197,87,26,82,145,211,239,200,51,53,103,58,170,5,31,222,78,121,39,58,60,174,216,86,212,48,172,207,79,144,242,64,15,101,60,159,222,173,140,32,4,97,77,1,162,160,69,164,100,24,74,169,249,78,139,87,252,148,24,210,53,125,102,106,232,84,197,234,162,246,47,129,137,111,76,39,214,245,170,196,164,193,61,123,93,238,15,21,215,238,196,164,93,178,255,65,199,184,237,242,54,34,81,89,235,63,135,61,73,72,241,56,158,179,218,173,19,165,77,91,173,184,63,255,124,36,26,3,56,60,177,153,94,65,14,41,92,167,152,80,8,231,73,22,173,45,211,146,168,96,180,203,90,46,7,68,217,204,237,143,220,53,46,158,129,83,87,224,42,142,1,28,54,84,64,106,10,206,53,1,31,173,42,107,53,244,89,227,247,255,73,158,13,246,34,14,213,39,99,66,205,20,251,58,161,149,214,193,147,245,213,201,56,157,193,152,1,146,200,206,101,56,74,216,251,83,57,148,115,209,243,196,181,213,39,136,181,86,204,189,129,146,26,101,245,60,187,41,13,223,231,26,46,56,194,86,60,77,244,129,100,45,43,171,102,106,189,68,164,111,220,207,248,116,202,176,92,23,118,9,100,112,186,59,145,226,25,158,80,88,52,203,199,58,220,94,26,175,48,40,0,159,178,67,151,167,22,94,234,43,155,36,173,22,26,58,110,210,224,27,230,4,148,112,229,161,113,25,96,112,204,82,214,225,226,100,39,20,58,208,240,127,202,189,170,0,50,90,104,36,216,187,29,208,98,79,244,106,14,61,98,114,24,250,81,99,72,207,237,153,22,172,20,200,182,148,74,113,169,29,69,139,233,164,222,144,33,136,172,138,254,199,88,178,191,220,243,3,94,12,188,4,89,173,168,207,81,38,112,205,160,40,76,233,224,246,98,45,51,107,25,144,141,13,78,4,211,14,22,117,34,67,111,84,234,200,181,85,247,185,111,249,12,172,228,119,110,127,96,0,94,183,31,45,227,241,100,82,53,114,253,71,104,163,251,33,229,98,137,39,104,144,43,42,103,185,204,106,142,37,56,248,129,34,217,166,222,49,172,118,228,53,71,186,11,102,6,160,13,219,233,68,244,88,87,73,156,172,3,93,93,88,147,241,154,40,171,230,243,81,95,173,154,17,81,108,65,34,183,75,160,45,234,206,93,52,217,93,163,59,18,45,177,193,181,150,178,91,207,230,114,135,81,170,144,232,188,146,161,204,7,22,198,57,112,160,127,144,254,192,76,244,42,228,1,13,30,84,101,89,160,43,229,120,215,81,13,229,9,172,239,8,63,253,50,157,139,116,37,42,97,242,35,111,82,34,184,213,182,45,136,239,143,155,63,0,54,147,95,106,159,89,181,87,192,107,99,174,97,208,32,147,77,49,50,168,124,228,36,111,234,65,135,172,140,188,251,193,198,233,129,103,111,52,43,117,148,21,69,200,171,231,187,171,27,155,214,79,249,137,106,85,209,93,131,4,187,167,193,80,93,248,201,225,48,229,103,42,89,29,63,126,90,254,255,4,0,0,0,64,0,0,0,213,246,255,255,166,11,0,0,203,0,0,0,39,0,0,0,229,6,0,0,141,249,255,255,38,242,255,255,46,246,255,255,213,249,255,255,71,253,255,255,186,252,255,255,223,255,255,255,26,252,255,255,87,248,255,255,25,4,0,0,8,245,255,255,202,90,254,255,4,0,0,0,0,18,0,0,217,168,252,100,25,199,206,29,29,60,96,151,83,177,218,221,37,247,160,198,180,164,219,103,191,61,35,246,229,84,83,232,88,169,22,235,46,208,84,53,221,233,19,192,238,240,69,168,160,248,92,102,201,18,176,112,58,16,1,179,35,108,187,16,40,246,28,184,202,97,102,253,49,38,82,38,10,6,12,35,219,177,202,191,150,27,176,189,209,116,236,127,247,48,76,152,32,200,37,246,243,233,54,241,106,253,40,43,74,42,146,254,4,94,236,86,156,217,98,10,160,243,185,21,2,71,225,156,192,60,235,3,198,1,93,32,228,214,105,155,197,64,97,149,188,247,36,245,163,13,14,60,1,231,18,234,211,5,35,17,194,21,86,62,0,192,199,189,36,84,244,2,136,242,177,121,239,5,121,97,255,6,42,227,105,44,230,102,251,1,43,231,196,215,199,42,250,84,105,214,2,67,29,1,154,20,1,58,34,3,103,40,61,8,54,26,188,53,46,185,97,117,139,229,235,226,48,30,27,122,115,158,190,209,136,207,100,189,32,54,28,32,9,176,154,32,37,213,196,185,82,66,174,174,45,13,14,129,32,20,173,201,46,234,9,255,199,62,229,27,87,16,101,147,248,86,38,49,24,180,249,66,207,28,6,28,66,236,235,106,75,247,90,175,199,111,34,178,87,240,101,19,184,77,222,191,247,185,228,29,29,197,188,9,101,66,215,35,32,63,127,10,21,50,230,200,113,234,115,173,33,55,200,36,206,28,78,161,208,206,161,239,15,17,53,234,62,6,89,177,92,176,205,87,23,51,196,3,192,107,249,236,243,200,253,1,242,205,96,219,211,42,196,213,6,195,169,52,74,192,100,242,253,253,63,3,171,156,227,207,23,205,99,152,212,40,15,34,72,18,46,24,93,3,173,111,234,6,201,52,81,79,244,226,61,227,29,116,231,248,159,192,58,231,231,168,167,44,157,22,21,230,19,173,182,62,10,85,230,215,41,22,230,78,18,80,240,219,66,25,17,234,97,13,238,28,227,147,241,218,91,25,216,15,170,152,180,15,209,28,99,85,37,201,58,82,204,167,22,7,205,216,74,89,195,97,7,94,12,198,98,148,101,246,6,165,226,168,8,70,180,174,70,76,9,10,247,188,174,66,222,42,223,48,220,82,14,250,49,216,220,212,8,68,48,62,3,216,206,85,169,72,184,171,8,222,13,23,205,188,61,255,168,248,34,176,99,96,85,11,250,18,51,211,195,162,19,219,149,43,42,129,236,97,219,39,253,95,237,40,70,49,84,97,198,170,217,95,52,175,188,6,220,175,87,4,175,108,215,148,17,5,37,34,78,57,72,164,202,154,243,83,252,230,50,175,223,235,66,243,218,11,255,20,54,179,179,51,9,252,29,95,160,225,62,87,183,179,127,192,6,233,61,75,207,89,17,23,74,39,180,30,229,85,230,60,88,31,226,25,3,188,97,252,104,176,238,47,164,59,239,226,70,191,25,214,54,42,241,209,47,6,105,91,123,227,199,87,33,14,243,109,240,97,44,248,190,215,200,53,111,67,32,200,185,6,237,227,247,108,98,183,41,250,52,191,213,31,233,227,40,30,17,249,28,99,63,191,191,222,162,9,91,218,188,87,187,202,252,157,246,199,173,76,146,81,103,251,91,91,24,199,208,106,1,10,230,199,160,201,129,87,13,61,45,231,186,105,163,108,86,205,41,72,220,57,239,248,99,186,53,214,181,40,193,198,95,189,77,208,72,72,231,77,107,72,225,201,95,51,212,173,254,249,45,175,83,54,26,208,194,193,21,95,102,211,57,18,222,73,59,1,244,74,217,251,227,75,183,70,154,32,51,229,239,71,156,179,217,21,60,19,79,62,174,219,17,98,63,95,14,25,219,23,38,202,38,99,76,50,249,233,66,71,24,78,217,188,41,79,18,197,246,65,44,229,240,96,11,19,194,231,49,250,116,252,43,1,58,20,98,67,239,32,169,174,246,34,166,160,240,53,211,222,97,207,0,220,109,119,63,37,10,97,254,12,8,108,61,36,4,19,212,192,61,75,88,56,115,99,60,251,79,129,39,82,199,38,220,220,28,189,197,231,221,93,164,248,230,172,179,21,197,230,12,80,19,116,233,168,210,28,7,98,241,231,198,171,244,187,58,250,33,11,69,78,223,185,244,196,199,162,223,104,4,54,213,222,41,105,83,64,228,179,9,178,7,122,84,117,5,47,188,104,172,176,100,173,7,231,24,76,76,182,191,44,237,157,165,92,163,183,47,218,165,158,27,68,97,111,96,13,252,13,227,221,215,225,78,8,14,14,66,230,200,213,202,214,94,189,182,78,232,208,89,187,201,66,41,209,69,67,196,42,225,255,154,56,219,164,84,173,251,170,178,95,89,6,185,69,191,214,28,242,74,15,172,206,164,156,169,215,101,25,243,59,181,92,92,255,7,197,92,242,162,234,203,17,238,28,175,177,48,7,69,27,67,28,50,21,61,45,209,13,8,20,3,73,19,223,55,171,217,105,100,43,221,252,26,127,5,94,81,111,248,16,20,246,233,229,93,21,199,239,206,67,19,3,70,229,62,16,207,206,27,99,185,58,237,251,3,233,17,160,12,159,240,205,50,83,70,95,220,48,204,2,192,65,72,6,14,45,241,107,40,233,37,3,241,35,167,69,195,71,194,2,48,69,217,8,239,208,220,180,193,246,198,61,107,78,47,202,98,245,76,52,213,75,108,54,51,127,94,195,83,102,84,111,24,165,47,89,27,178,167,193,147,233,82,199,212,247,60,120,215,97,57,201,199,102,20,154,146,103,218,31,182,22,215,232,8,87,225,101,106,175,162,23,180,100,228,236,58,146,197,41,221,3,1,204,176,218,9,86,194,203,22,153,208,86,42,40,4,83,45,176,235,61,200,166,133,18,224,144,217,227,204,29,228,137,119,238,232,37,98,6,224,194,85,254,155,19,0,166,186,99,103,122,156,17,147,64,231,208,232,100,84,235,3,66,166,29,198,104,60,54,36,171,26,203,85,105,214,250,218,89,214,180,231,193,246,110,151,73,254,82,11,188,107,14,167,193,90,197,175,198,87,7,199,197,62,251,236,229,230,177,63,251,8,97,67,56,117,230,229,75,36,132,228,51,139,79,15,117,192,158,245,58,102,156,249,235,215,162,229,139,216,81,120,121,123,142,5,69,8,57,69,242,84,42,186,223,182,77,127,154,67,15,159,117,90,168,77,62,237,48,162,0,168,112,18,22,70,136,233,104,253,8,225,239,42,79,223,28,163,218,66,23,248,197,252,247,191,210,92,183,253,34,79,6,5,230,4,140,145,37,220,255,222,73,91,187,32,230,8,187,249,76,6,92,185,235,159,5,30,90,66,84,11,3,40,209,146,124,99,254,162,35,162,250,104,68,220,83,103,14,199,184,167,236,141,169,195,239,57,34,170,216,37,104,84,121,219,26,41,242,68,67,236,44,187,141,69,41,65,215,137,119,163,218,71,231,62,0,129,61,50,88,211,164,152,101,48,20,249,132,75,243,254,197,54,44,3,17,192,33,15,239,222,43,33,188,170,99,56,55,58,209,109,227,225,127,237,222,43,13,61,201,44,91,191,57,207,198,89,147,172,242,173,200,66,32,241,20,183,5,4,30,39,75,106,229,104,237,80,247,205,200,46,239,196,141,43,3,187,0,178,37,246,90,37,212,44,145,85,217,32,163,214,77,190,75,175,38,242,13,227,64,57,32,248,211,67,34,251,218,70,30,168,100,92,192,24,84,200,172,42,106,0,237,214,11,158,34,54,182,236,35,25,251,189,99,43,31,55,206,177,180,53,19,230,161,5,56,20,74,31,215,211,175,86,19,240,5,253,175,55,62,102,228,40,2,180,19,178,77,1,243,252,10,18,89,196,57,70,38,83,20,253,8,187,65,247,96,249,70,6,81,176,18,226,142,154,58,67,233,53,172,21,77,169,200,147,84,68,18,229,52,188,205,2,15,209,196,1,57,78,249,39,237,46,57,225,255,90,58,196,21,64,84,26,69,221,153,245,172,218,64,59,64,89,70,158,205,87,150,186,200,235,60,5,65,166,204,202,168,199,35,186,234,84,206,253,70,238,43,2,12,232,92,199,129,212,99,25,252,37,57,218,248,165,47,214,200,41,187,70,15,10,83,92,215,166,234,197,164,68,21,30,11,236,181,171,207,96,250,211,42,81,238,3,119,36,110,236,89,20,251,4,183,19,96,203,202,79,20,70,39,56,227,226,73,216,195,9,232,79,9,97,99,107,61,97,21,166,159,24,200,42,28,239,19,196,182,104,227,159,190,221,235,253,221,177,205,196,240,199,242,49,247,97,228,253,34,108,96,54,47,238,226,24,191,181,184,152,35,80,155,212,88,104,57,47,129,67,40,210,46,185,82,193,92,171,161,244,33,188,58,53,212,78,231,22,233,112,44,69,240,193,37,29,89,92,184,38,57,209,98,45,88,184,53,77,99,65,151,103,89,53,176,54,22,96,69,86,72,114,75,111,83,231,127,207,35,185,230,1,182,252,112,146,106,101,141,155,209,45,52,210,227,105,241,68,246,67,46,204,185,152,232,180,228,248,222,114,192,230,245,216,0,5,152,108,33,85,190,62,195,187,29,180,45,177,1,83,79,32,115,7,15,59,197,237,191,6,0,4,2,7,223,235,158,96,19,186,73,11,52,1,12,150,229,23,141,230,214,246,103,64,185,233,13,228,185,255,169,222,204,1,224,239,216,208,206,38,63,153,28,250,145,198,178,254,81,35,86,58,177,63,62,106,200,10,184,20,229,51,59,101,221,212,88,9,178,96,223,78,110,78,186,237,149,170,3,197,33,36,50,251,95,79,255,127,106,208,67,56,29,72,242,34,151,59,80,54,213,23,92,249,87,204,1,5,36,197,158,64,72,223,121,228,184,22,109,173,171,179,74,252,198,72,238,239,102,44,19,155,217,207,61,30,153,43,163,198,200,70,192,149,96,226,95,180,10,38,0,238,32,0,69,31,7,56,192,242,120,161,83,83,18,236,81,58,28,71,32,227,207,60,245,15,116,67,104,210,25,171,74,144,158,14,54,97,224,2,205,248,157,193,167,21,57,151,222,97,167,14,17,180,223,225,57,215,111,196,202,174,44,102,224,234,113,100,8,101,239,71,185,139,212,79,110,246,90,91,62,84,109,177,160,113,101,200,191,217,158,16,235,228,54,41,75,114,172,222,35,166,162,93,83,191,103,2,28,117,152,222,44,89,86,232,243,50,0,162,254,14,149,155,41,189,87,6,63,180,47,44,135,2,81,138,143,223,95,130,159,211,129,219,181,85,40,56,46,234,100,178,29,58,175,54,119,109,32,0,216,109,101,184,173,90,227,197,164,34,165,44,252,152,254,188,52,32,24,147,84,245,208,108,94,226,203,105,216,84,93,124,200,196,205,66,73,74,19,191,99,166,151,18,57,185,228,48,80,220,71,147,66,255,157,186,115,181,251,105,63,91,148,106,166,144,82,200,8,115,57,70,107,173,89,42,245,23,216,209,173,170,71,173,239,142,213,5,80,200,102,152,228,176,157,230,75,143,32,86,242,84,198,46,224,127,247,119,164,221,142,184,133,197,96,21,17,32,168,210,91,15,22,187,13,81,71,110,157,106,64,7,254,208,201,198,215,36,65,218,176,191,168,161,2,214,236,197,250,120,175,110,244,10,207,41,53,43,156,40,12,146,111,215,23,142,30,153,210,100,181,92,206,214,216,97,117,136,165,18,109,94,38,194,47,153,197,222,36,250,203,45,35,246,76,180,195,51,18,233,32,4,123,190,89,68,93,232,253,93,75,171,177,85,26,247,73,55,180,212,49,7,36,210,17,179,20,158,173,40,169,213,83,186,32,65,219,232,230,68,57,129,250,211,217,22,191,183,17,194,184,208,228,198,200,176,178,58,93,227,176,104,51,106,54,163,229,59,44,32,13,157,213,225,114,228,18,3,76,105,255,211,38,224,248,59,64,161,152,153,157,253,205,31,175,9,217,192,24,55,151,17,195,221,118,159,55,83,64,229,162,105,11,3,45,168,94,167,179,164,78,61,157,205,251,30,70,84,196,234,5,20,57,219,150,8,95,236,193,80,246,190,199,239,172,151,82,152,177,183,148,163,22,191,81,40,2,178,174,153,38,158,55,87,96,90,50,94,58,237,202,8,189,188,151,6,112,239,194,50,28,204,126,95,131,129,19,176,4,151,228,178,191,42,32,171,105,171,178,74,159,228,75,93,68,166,12,212,22,219,59,79,85,68,7,66,28,190,188,84,29,27,28,119,97,197,101,161,255,180,23,218,29,196,105,255,172,197,180,85,6,222,187,22,146,100,67,150,112,243,225,255,166,122,231,6,223,225,181,147,54,195,237,121,19,154,59,22,239,108,235,86,18,244,200,9,171,16,40,120,78,103,107,68,93,147,77,183,219,35,109,184,66,244,70,176,153,234,233,61,87,159,42,71,83,221,127,66,215,70,60,4,62,238,23,218,152,252,27,168,243,114,124,75,63,51,115,216,28,195,104,154,111,78,222,228,228,14,179,233,235,209,246,64,151,216,85,194,186,44,19,203,205,29,170,76,52,180,76,115,198,220,145,138,173,17,199,164,57,195,167,82,246,106,248,162,90,54,7,220,91,200,60,230,164,222,11,93,241,108,5,170,160,62,207,188,219,49,10,17,187,105,242,16,161,68,59,91,206,67,54,8,192,254,190,181,11,200,221,66,122,59,33,91,51,33,114,5,250,223,227,242,77,58,226,226,222,93,150,3,240,111,235,31,7,79,213,20,71,73,202,29,176,40,249,24,247,78,212,241,40,70,47,54,45,93,108,23,188,211,185,37,26,127,85,14,183,247,2,251,219,79,226,30,31,200,38,60,235,218,166,71,63,211,212,207,228,90,174,39,65,14,23,73,89,98,177,209,242,94,169,246,238,236,229,2,11,10,7,97,194,218,0,96,88,20,216,0,36,13,40,180,36,232,10,212,244,8,28,248,64,200,57,246,196,22,245,219,223,40,216,15,19,39,13,3,215,198,15,183,246,237,230,247,168,96,181,237,90,12,194,204,33,37,188,28,72,225,112,196,248,225,242,153,89,202,14,97,7,25,84,215,54,238,110,189,234,210,90,204,166,192,58,189,248,222,61,76,218,2,232,161,82,96,73,35,227,33,184,232,155,214,66,60,61,150,241,66,102,181,109,127,8,12,214,203,41,167,81,27,32,2,227,213,111,19,162,255,223,82,196,235,74,30,186,87,88,33,46,198,165,244,28,23,198,71,41,140,60,58,211,26,70,31,191,198,224,3,57,251,7,104,55,31,5,88,45,86,58,241,52,29,59,4,37,178,62,41,205,19,178,183,211,161,161,68,33,165,72,214,191,242,10,203,146,202,209,195,47,114,65,179,12,43,109,31,193,226,237,94,19,85,43,179,207,233,171,165,239,231,126,127,159,90,219,93,193,151,188,231,44,208,110,72,163,46,73,45,234,229,102,171,199,210,119,1,20,207,79,114,234,196,173,67,45,27,111,149,66,65,236,67,192,157,160,92,50,51,230,8,96,241,213,197,98,54,163,78,175,149,139,178,27,162,171,61,13,192,232,191,31,98,36,182,73,21,38,170,188,65,35,219,237,15,56,62,61,19,231,194,212,111,151,60,12,241,191,212,144,149,96,195,215,200,28,197,164,65,252,239,71,3,71,149,163,172,175,88,98,57,207,164,138,226,243,61,229,172,233,39,9,183,127,150,151,72,43,179,99,199,198,198,29,106,220,240,53,123,142,181,39,234,224,114,42,65,217,44,228,79,188,92,79,237,200,15,81,4,117,98,85,206,112,246,157,249,17,69,89,244,246,105,236,205,149,95,12,224,112,163,49,84,237,194,82,2,238,111,253,222,94,247,243,53,217,51,24,185,223,248,25,205,110,101,76,72,151,175,228,10,157,22,9,251,100,2,72,107,171,146,14,185,68,224,233,204,36,4,239,4,212,155,200,203,79,73,94,226,83,56,45,180,172,165,222,158,8,43,76,102,238,90,195,29,19,98,174,60,187,180,19,110,63,174,37,208,32,78,167,0,247,66,169,131,90,166,1,78,91,32,146,44,75,19,129,39,68,239,62,19,106,159,6,205,146,156,213,200,254,173,21,77,155,240,182,29,50,142,14,142,157,22,68,131,158,7,37,210,188,33,193,241,22,178,74,178,74,56,211,222,74,209,19,115,235,49,203,224,64,178,251,214,142,44,233,196,147,146,47,197,17,184,173,214,76,0,67,83,237,80,220,199,39,36,168,62,52,46,61,65,173,36,210,150,211,5,77,201,80,185,252,108,48,226,200,4,137,247,30,35,171,41,71,207,95,99,72,149,22,198,236,17,168,73,224,162,251,152,24,145,190,79,112,204,41,60,184,228,193,42,237,43,42,93,183,101,232,183,96,200,228,81,168,75,47,58,86,31,230,54,189,28,177,151,28,252,78,69,46,221,109,53,196,53,189,245,171,129,142,167,214,94,100,52,5,84,81,219,234,243,53,189,230,192,242,59,15,226,167,214,30,92,95,118,75,71,23,65,247,9,212,74,113,4,90,222,162,162,49,204,218,16,43,35,100,233,242,83,39,32,137,56,225,38,198,16,182,59,14,85,180,61,138,185,70,134,151,180,221,33,10,183,163,68,247,148,153,186,39,195,83,47,234,172,20,170,11,34,148,251,238,99,211,187,64,115,15,47,102,222,83,99,165,255,207,168,82,219,207,127,254,11,144,216,78,11,171,194,191,48,170,35,48,163,202,30,150,25,171,39,54,154,195,101,5,186,57,48,73,234,115,3,254,66,231,78,57,22,99,7,49,75,73,48,53,28,44,253,100,59,218,229,112,190,155,28,192,216,31,45,179,100,195,44,28,164,196,39,242,246,173,78,217,72,226,25,45,245,48,18,200,32,21,20,50,147,62,198,21,37,195,55,155,167,72,167,172,189,102,237,217,61,104,82,87,9,194,234,144,248,228,108,61,116,239,180,250,81,206,28,216,21,74,196,102,32,145,7,209,191,182,148,45,51,195,112,26,196,28,11,87,37,70,127,173,200,202,13,182,41,235,61,253,46,3,88,245,7,39,81,197,218,88,221,186,82,210,216,1,81,57,165,177,58,14,56,171,81,70,91,208,70,21,209,102,203,187,64,116,170,44,66,91,219,9,52,87,62,249,228,35,205,168,7,47,51,71,197,1,255,35,67,40,84,2,82,102,203,186,22,188,221,89,6,231,98,156,187,177,202,174,202,240,209,33,18,26,61,174,165,23,12,47,161,255,156,59,229,174,11,26,24,158,255,32,212,107,163,5,66,247,16,29,233,33,191,35,213,50,159,88,231,119,185,253,91,77,243,53,220,51,223,127,179,229,255,219,243,246,76,69,168,66,66,72,245,88,206,123,42,23,198,162,234,158,173,16,33,112,210,38,110,212,37,242,7,196,54,18,198,197,168,8,204,173,79,167,232,18,0,193,252,47,18,30,167,196,48,71,191,172,91,165,50,230,149,60,61,47,199,149,47,90,78,218,66,105,39,220,221,36,51,211,36,174,68,31,70,187,203,189,50,98,234,19,88,203,159,187,154,63,159,253,193,6,205,59,39,204,239,119,170,31,206,247,208,42,173,77,54,174,190,149,54,27,248,22,26,108,61,165,37,194,14,255,84,20,216,86,28,216,179,105,94,186,230,197,243,66,205,195,75,184,198,22,84,9,147,156,107,74,6,159,222,2,177,5,47,60,11,190,231,239,93,234,7,93,226,127,46,36,90,192,97,190,69,38,229,184,222,213,210,240,110,150,0,32,70,158,151,100,160,196,186,96,220,155,174,218,52,86,172,193,30,175,51,240,234,6,67,46,1,242,106,167,60,114,187,118,30,186,177,209,122,195,208,12,248,167,249,19,247,61,145,183,212,149,7,97,39,30,158,208,25,13,171,234,237,22,213,245,147,236,79,229,99,229,40,22,171,89,201,145,1,90,168,223,163,118,226,251,24,249,255,14,243,166,58,103,11,79,209,54,249,236,166,33,47,162,74,219,12,127,118,217,229,88,245,73,174,114,58,19,105,236,20,224,156,65,7,255,230,110,95,48,13,71,27,46,1,236,66,38,252,220,156,72,227,69,241,189,102,18,91,149,168,224,150,197,251,236,90,86,217,185,162,247,117,140,210,220,183,85,91,191,88,9,57,24,196,79,223,232,166,125,92,83,150,188,90,239,86,96,254,37,250,222,188,251,117,254,187,245,36,165,174,46,212,95,108,193,64,224,245,198,197,162,60,253,194,69,66,227,214,108,254,255,4,0,0,0,128,0,0,0,121,244,255,255,57,249,255,255,166,255,255,255,65,252,255,255,58,253,255,255,30,242,255,255,72,11,0,0,48,8,0,0,62,247,255,255,108,253,255,255,190,2,0,0,14,246,255,255,128,246,255,255,190,245,255,255,242,247,255,255,132,248,255,255,133,244,255,255,185,255,255,255,87,253,255,255,234,249,255,255,196,248,255,255,188,249,255,255,131,12,0,0,76,253,255,255,28,254,255,255,155,241,255,255,97,2,0,0,243,249,255,255,97,242,255,255,4,3,0,0,93,247,255,255,170,13,0,0,98,109,254,255,4,0,0,0,0,144,1,0,149,12,253,188,13,192,139,36,168,246,49,146,190,42,89,219,133,58,186,255,134,74,69,189,78,88,179,247,1,46,253,59,222,34,225,17,225,200,68,96,162,48,110,31,153,80,142,36,137,179,174,17,158,242,7,103,228,179,147,86,94,109,226,183,58,106,228,67,52,155,195,243,74,252,12,16,154,78,237,64,177,112,252,239,135,201,93,166,81,99,230,221,136,245,38,67,228,151,154,153,57,244,212,65,58,87,251,3,37,46,182,133,45,99,62,64,164,237,168,161,199,85,210,185,78,49,70,204,241,59,206,7,218,179,217,210,167,70,31,6,155,39,134,246,84,212,230,137,135,60,101,33,234,20,43,155,32,106,97,93,212,222,192,226,206,231,144,177,141,79,241,163,239,2,94,242,86,51,188,24,93,138,69,245,87,186,176,203,200,252,148,219,167,93,2,156,192,79,151,139,228,226,191,2,84,92,74,77,69,95,110,93,140,17,239,39,47,204,227,149,150,150,64,242,79,238,53,22,48,7,157,80,223,18,85,62,183,131,147,80,26,195,66,162,152,245,181,166,37,70,192,191,31,23,229,53,145,246,40,78,80,144,221,94,176,192,159,111,12,35,236,157,208,157,46,197,52,97,174,209,189,97,235,187,74,42,138,47,92,78,22,138,58,170,216,22,56,92,78,240,239,27,43,210,214,178,7,45,249,236,81,29,221,250,229,159,180,232,139,75,219,56,217,143,61,169,94,13,185,43,228,37,209,204,205,5,210,225,212,186,96,226,93,9,248,2,217,24,65,143,186,8,94,0,17,165,9,87,0,193,180,194,57,83,223,188,46,132,238,24,15,86,14,32,144,60,38,158,217,93,78,228,239,139,88,101,64,183,159,236,215,30,24,210,184,155,240,251,84,45,156,92,50,252,237,169,167,167,68,37,5,90,36,30,10,195,243,250,234,190,166,11,224,53,91,27,105,34,108,164,14,187,238,145,209,40,68,254,38,77,183,219,213,58,204,75,12,59,227,108,68,165,79,208,71,244,215,99,29,170,90,184,232,80,31,179,152,157,226,245,178,180,205,86,89,183,191,29,33,193,218,217,30,180,134,225,56,75,86,222,11,13,48,57,164,203,91,204,85,179,59,85,244,236,86,95,33,68,177,4,214,248,213,97,247,85,42,224,14,87,177,217,218,32,94,136,45,144,255,2,101,18,164,45,243,93,216,69,3,13,54,96,85,3,204,5,57,229,62,81,233,93,234,12,186,227,198,242,80,50,180,200,254,213,85,191,92,164,170,32,27,245,42,161,186,178,142,210,76,55,246,170,86,85,66,149,49,224,235,21,60,213,39,231,237,197,153,254,96,63,176,24,197,20,221,193,33,78,69,60,10,159,218,154,158,149,77,245,76,165,9,102,139,20,239,109,171,206,87,148,151,249,186,37,250,174,28,48,187,55,242,139,214,97,155,241,37,46,152,86,213,195,230,186,78,245,82,46,14,213,145,151,162,83,200,240,250,190,213,56,137,201,13,249,173,162,202,63,86,145,141,208,226,246,237,210,213,23,194,11,249,180,200,197,100,39,79,55,63,25,75,153,75,89,38,58,152,173,30,159,206,248,197,163,163,89,18,31,162,255,72,231,166,138,95,194,147,45,252,19,254,179,229,184,96,54,197,92,178,208,83,189,12,141,139,111,163,202,46,195,60,226,173,164,152,46,91,93,250,81,252,107,176,151,100,64,234,92,163,33,37,156,26,238,152,222,43,18,252,102,220,71,130,5,57,154,188,175,207,39,25,229,189,211,213,47,185,254,129,155,180,84,238,162,38,226,178,54,243,191,222,83,228,31,206,193,155,64,166,32,190,161,226,37,184,246,176,66,45,56,149,183,183,16,147,175,36,224,31,67,47,155,202,48,72,146,63,10,238,2,78,151,13,188,240,239,188,181,245,3,78,104,67,45,85,170,227,51,237,26,45,85,181,236,152,228,228,42,96,58,152,217,106,195,139,55,88,146,149,195,39,92,235,17,54,203,151,69,239,48,60,243,220,152,255,194,17,217,221,130,90,41,165,45,18,70,70,160,105,186,150,144,63,206,173,85,143,68,166,166,206,202,211,200,214,26,91,163,19,40,219,148,50,155,251,239,204,160,129,206,182,28,43,79,236,70,12,156,22,157,218,179,49,224,36,5,209,130,134,105,59,6,26,63,50,63,144,233,163,247,194,211,9,28,226,156,82,202,156,213,219,144,76,11,55,141,94,52,172,77,166,99,183,225,240,43,44,165,252,158,204,36,170,175,169,89,216,224,221,141,176,22,211,193,148,140,238,5,209,193,170,70,142,58,72,158,135,227,85,62,198,242,86,152,133,43,164,184,67,250,96,217,70,45,37,239,226,151,66,197,47,194,43,12,83,188,204,175,85,152,158,45,252,181,8,185,6,146,77,155,4,193,20,178,35,237,35,31,129,138,132,182,144,17,147,247,35,75,200,90,153,204,21,173,42,63,144,133,165,189,186,244,56,6,21,75,198,63,64,38,189,37,94,37,208,161,53,143,51,97,233,214,184,151,65,227,77,248,232,194,136,240,253,35,239,174,237,171,223,204,22,183,51,238,244,213,9,207,190,87,230,194,19,49,180,67,177,169,45,180,219,65,96,7,97,242,235,168,202,142,171,47,98,201,21,78,47,215,167,12,64,197,48,64,48,200,219,133,171,243,97,186,239,252,142,247,58,58,67,100,244,42,174,31,131,39,196,157,226,95,201,138,240,16,66,155,203,71,251,220,232,223,133,25,228,169,63,155,201,232,2,39,149,153,202,236,154,167,58,32,4,165,222,204,24,174,147,161,88,47,59,168,211,8,4,227,247,64,252,208,255,231,190,221,217,77,17,55,209,61,74,186,244,130,29,55,81,47,160,65,174,15,32,55,22,195,56,30,65,6,93,139,232,53,47,197,235,134,40,109,240,107,206,196,195,95,52,251,79,227,71,55,212,159,236,220,30,182,150,229,201,156,210,249,32,15,153,206,223,93,93,90,56,6,49,98,151,51,159,133,224,33,203,28,153,65,49,203,132,131,231,63,37,255,141,16,61,29,23,109,221,89,216,200,253,35,140,171,146,136,140,180,9,11,91,56,157,100,174,225,22,227,156,171,33,39,54,19,178,32,96,222,174,166,167,79,177,216,252,3,62,136,25,20,216,73,14,233,102,20,232,70,160,55,248,98,100,3,149,19,201,131,79,69,191,147,87,98,183,182,208,129,7,198,162,14,205,75,161,64,39,151,166,236,160,200,46,164,193,220,136,226,171,225,196,212,55,240,79,244,100,72,214,156,211,142,95,226,2,23,96,43,200,198,26,171,83,191,42,131,71,147,52,143,137,71,152,10,97,131,1,167,23,51,198,218,164,179,17,13,206,83,196,48,18,200,71,5,45,86,131,254,221,14,21,83,243,174,18,42,25,88,80,52,196,245,232,58,189,132,62,74,195,216,163,171,151,167,62,249,199,15,60,3,41,169,241,19,195,144,175,253,34,49,83,101,78,45,25,152,240,20,96,85,221,42,39,181,47,69,176,235,245,242,204,24,249,225,94,87,201,37,38,165,188,24,167,233,35,250,168,54,218,224,135,10,180,211,182,84,235,59,208,19,230,7,130,28,237,212,71,192,244,46,86,112,83,60,237,169,94,188,143,157,63,4,170,73,71,88,244,16,240,170,5,1,68,60,9,47,146,169,136,36,9,85,183,219,178,236,193,226,71,11,160,187,135,143,225,161,69,170,61,32,143,6,221,172,247,139,66,50,30,60,95,157,226,228,166,80,213,18,10,77,95,193,11,49,182,208,240,28,52,37,1,201,54,155,54,63,130,168,180,225,215,230,236,7,18,164,248,147,91,8,22,250,17,244,85,85,93,64,173,88,234,57,31,186,236,63,37,197,164,78,78,250,66,251,194,88,252,4,141,4,185,10,153,88,237,158,71,253,28,229,232,225,197,41,221,96,208,109,217,0,250,254,242,203,196,248,41,148,243,71,213,30,72,211,50,105,218,175,80,79,74,186,254,203,204,92,202,201,250,44,23,210,17,169,86,23,157,7,245,192,48,223,7,44,253,144,197,25,179,157,16,68,177,234,12,179,163,92,57,255,73,30,70,144,51,67,51,96,67,240,81,242,240,36,149,164,83,1,31,151,249,17,174,40,155,90,238,227,45,7,160,220,32,10,154,226,240,152,200,107,250,248,169,3,52,64,139,52,67,167,224,69,77,79,146,153,235,40,19,32,212,132,205,253,165,71,41,75,31,13,10,95,248,15,162,246,223,152,0,111,183,25,203,150,181,208,26,194,25,75,131,181,160,79,35,89,21,28,155,222,166,199,95,50,178,165,96,14,145,205,87,44,209,203,227,171,210,88,203,27,51,233,242,232,225,239,180,75,246,233,215,57,31,22,50,169,42,222,172,240,180,137,51,100,49,59,89,53,130,54,221,233,162,76,180,103,187,136,79,198,214,251,175,91,192,146,227,154,206,41,156,232,181,254,40,211,191,210,175,247,253,184,43,181,51,97,227,146,243,24,15,59,168,158,175,15,242,173,202,179,38,85,72,231,26,174,69,32,85,244,228,162,191,133,26,7,38,9,49,144,148,252,244,22,171,171,99,91,235,12,181,200,91,18,132,185,94,47,230,5,208,209,198,173,99,72,190,2,197,96,87,19,2,240,175,229,77,163,38,187,198,73,77,226,84,179,252,135,52,64,55,238,251,84,18,211,221,140,37,197,152,88,231,235,170,246,227,106,101,9,14,181,208,29,198,226,215,30,228,51,5,161,48,218,59,190,57,214,246,231,35,16,178,154,197,145,58,213,169,245,182,156,2,216,93,75,14,50,232,39,26,2,159,184,58,87,175,218,242,15,31,211,107,23,30,210,76,150,39,31,24,221,40,38,59,202,131,91,140,198,248,192,52,183,73,58,6,18,183,213,220,167,65,1,158,101,71,38,172,193,143,36,199,214,202,21,68,225,229,32,221,110,3,231,37,95,102,160,33,184,244,230,183,152,169,172,9,231,7,255,201,201,224,44,226,21,203,145,148,13,2,211,38,13,208,202,224,2,76,42,224,28,1,76,170,249,75,141,246,42,177,49,236,38,46,90,87,250,222,73,162,31,160,163,162,212,87,230,202,82,215,203,231,4,158,79,195,12,10,183,12,88,53,50,42,64,83,96,52,54,180,191,193,74,30,234,198,92,209,180,255,82,51,48,56,41,92,213,6,247,252,208,184,187,20,214,240,254,2,91,24,59,108,47,6,17,6,175,216,194,33,255,36,83,227,20,201,246,34,164,232,15,79,52,80,98,172,230,230,13,231,45,71,40,75,158,70,244,221,4,171,76,235,66,222,14,41,149,151,207,218,87,94,198,211,145,70,205,227,233,86,34,57,75,253,51,105,154,159,163,19,84,94,73,4,26,51,96,169,35,163,12,79,28,164,208,47,29,173,221,87,216,72,175,48,21,207,55,60,10,4,79,28,225,86,85,23,26,94,54,191,69,226,75,56,16,151,52,145,236,0,234,226,79,58,111,239,77,238,194,208,169,58,186,146,44,173,255,29,191,239,131,9,224,98,39,39,213,227,201,189,230,161,34,190,21,158,92,52,216,76,179,8,110,148,59,51,179,36,172,5,2,10,151,79,25,195,68,222,238,169,232,186,14,54,88,157,169,144,151,190,243,57,209,5,49,214,176,194,47,147,236,158,180,19,177,78,92,161,62,169,163,43,106,147,34,210,89,180,14,141,189,239,69,76,36,166,9,221,144,225,56,12,101,156,174,65,11,67,222,35,180,251,12,164,208,162,75,216,213,40,236,3,191,4,4,67,253,6,240,163,224,60,190,204,180,205,100,91,150,148,76,11,44,174,42,41,71,29,253,90,39,131,235,78,45,57,195,32,152,243,102,19,30,41,153,234,234,224,81,136,4,181,230,8,193,48,81,9,165,136,95,98,75,171,174,41,144,218,169,243,10,14,101,241,77,166,13,67,107,156,224,19,140,211,221,202,200,93,141,101,226,244,233,222,37,219,224,235,56,29,151,54,12,111,30,17,50,147,95,205,213,40,48,222,33,185,17,135,187,29,14,231,164,144,190,109,62,180,143,178,167,142,2,138,203,206,43,79,53,154,193,204,107,172,95,158,221,21,249,91,199,19,215,19,172,246,133,230,205,245,17,252,252,249,98,173,246,196,57,183,18,200,43,228,185,236,157,54,185,151,102,52,202,59,44,192,17,94,172,18,67,155,190,95,175,103,53,185,35,24,23,54,201,251,54,160,97,158,69,40,225,105,248,169,231,153,215,102,45,185,45,195,52,215,229,169,201,173,12,42,188,150,92,23,77,244,197,184,173,155,238,58,36,215,183,164,103,208,87,191,244,34,163,29,233,25,4,18,20,193,59,36,228,100,76,192,243,241,94,231,1,2,42,97,34,73,200,215,55,241,212,30,196,88,96,72,33,163,184,40,207,201,244,37,48,11,159,206,202,38,70,18,156,32,81,199,212,159,243,216,86,28,170,252,103,35,170,235,253,199,205,84,247,136,233,171,56,252,165,239,177,149,48,53,243,51,15,91,93,52,29,135,187,245,9,89,73,42,0,55,31,41,190,194,180,182,210,224,147,216,234,13,52,63,229,5,204,49,157,99,204,2,226,234,188,205,178,54,226,139,231,145,146,167,245,99,186,37,63,13,144,172,46,35,48,68,218,163,206,156,149,83,165,218,53,194,16,16,238,38,69,174,40,168,156,98,130,13,21,20,75,240,153,251,170,68,57,163,0,192,239,30,159,48,4,248,4,198,82,166,201,163,165,141,34,5,84,252,64,212,250,235,91,78,178,203,226,206,5,223,254,231,151,3,95,0,84,255,105,162,33,66,51,77,61,85,220,244,235,188,62,72,91,11,44,46,11,58,51,20,21,51,30,139,181,26,99,239,78,220,100,98,155,197,15,175,187,245,226,154,222,58,188,179,146,19,13,160,237,45,190,187,144,15,3,209,192,83,185,213,214,243,216,24,12,111,185,143,23,234,145,145,188,254,171,5,248,32,239,151,183,2,254,211,234,236,63,229,247,15,46,200,194,24,153,142,112,207,214,81,29,42,15,160,238,139,232,34,210,59,31,45,173,180,105,89,107,26,41,181,145,150,98,3,43,150,19,173,94,37,156,179,75,147,198,9,235,92,14,209,174,83,5,236,177,4,144,228,224,9,68,68,206,254,198,46,22,5,4,156,58,231,133,218,3,175,215,72,179,52,153,33,216,208,110,76,93,36,130,139,64,165,245,60,203,93,210,167,98,49,76,253,63,51,249,56,138,247,38,219,88,166,230,66,26,23,199,63,157,82,150,202,171,168,172,203,61,161,50,214,36,246,193,209,197,210,51,91,13,223,58,242,56,172,236,213,161,2,49,177,171,57,184,220,249,146,193,27,52,133,75,149,13,172,253,229,8,221,244,218,157,52,233,171,90,200,85,5,3,11,218,145,226,255,34,150,228,147,178,156,236,16,164,137,237,235,247,196,73,130,32,211,77,253,113,145,25,42,28,29,65,152,242,35,81,149,180,223,144,46,245,140,222,0,192,196,215,218,138,233,46,234,1,2,96,94,17,165,52,217,234,26,194,87,11,88,21,11,85,161,210,16,27,57,213,26,80,164,24,57,216,50,181,139,225,30,74,26,251,78,70,199,56,43,244,163,57,50,178,229,151,29,245,0,149,176,81,179,150,174,9,164,33,173,93,189,70,170,12,227,205,187,192,51,15,216,25,61,160,46,32,181,168,186,171,24,34,180,75,172,230,90,78,85,55,61,69,190,206,35,223,160,187,2,222,193,244,199,242,55,2,43,101,145,12,155,48,32,205,201,251,15,61,209,181,95,35,204,255,90,225,33,89,182,160,52,233,168,171,185,33,162,177,215,90,151,241,2,152,132,151,26,254,166,152,68,215,176,14,243,148,80,234,82,179,212,45,139,15,188,211,241,93,190,41,209,235,215,64,172,45,62,23,0,0,87,169,146,19,39,182,180,42,92,190,146,130,193,244,92,157,20,71,245,231,163,109,49,209,35,242,239,168,70,11,171,200,213,209,206,185,219,67,194,13,89,220,27,146,248,90,13,68,212,35,85,27,16,98,175,0,34,249,16,13,185,31,23,69,58,86,232,222,194,230,39,240,15,182,58,171,76,125,189,46,52,75,57,203,144,76,254,27,209,244,189,177,168,205,55,80,252,81,16,13,34,163,209,213,44,12,5,51,35,243,141,150,92,228,82,5,169,206,34,252,76,83,67,216,144,168,236,216,249,37,232,203,95,140,193,184,154,144,18,45,210,18,80,182,28,224,77,130,69,202,216,250,11,174,65,240,54,57,0,68,88,179,75,30,91,22,183,201,145,91,199,82,58,57,90,39,84,14,33,0,214,5,149,13,77,66,84,32,42,78,85,15,58,47,255,214,82,23,224,239,61,45,22,225,183,163,242,167,176,175,229,71,40,60,219,5,166,13,252,177,56,219,185,197,40,253,181,36,134,56,238,75,13,146,204,87,33,140,42,89,93,86,241,10,192,44,201,161,37,46,235,210,177,241,196,171,250,236,64,186,160,204,255,31,179,130,173,227,177,78,164,14,187,213,34,220,180,110,166,110,186,54,23,146,27,166,6,173,134,166,210,160,48,83,214,65,39,241,153,166,143,252,9,67,60,135,99,61,203,178,29,244,133,207,213,51,249,239,207,246,243,235,69,0,174,31,89,42,79,52,13,141,26,136,172,194,68,24,189,194,9,20,54,175,55,236,23,84,10,209,39,208,16,69,178,140,201,202,44,217,85,243,15,9,56,59,241,246,96,77,173,160,238,14,144,252,250,213,35,250,235,135,35,94,18,70,54,17,192,175,81,140,0,85,5,145,11,229,82,234,80,155,98,132,144,185,255,86,172,247,242,195,47,68,187,61,51,220,188,171,192,76,63,33,38,216,255,61,25,162,222,155,57,91,192,160,152,109,83,8,240,173,229,129,130,199,54,42,62,52,139,51,169,31,125,190,152,3,164,143,147,74,234,22,203,223,109,67,179,183,25,71,229,54,248,191,47,140,205,214,75,4,83,249,198,47,211,16,46,183,232,144,235,11,181,172,108,82,158,239,155,222,27,14,82,60,53,166,174,86,150,86,167,194,132,3,251,170,57,24,173,168,9,171,20,226,39,207,169,254,15,78,30,248,242,189,62,51,247,53,247,134,22,237,196,208,79,151,195,60,116,17,208,216,239,212,188,93,185,45,101,11,51,171,49,23,170,205,214,83,227,131,109,184,50,179,75,157,148,85,243,209,130,231,37,8,26,197,34,187,135,153,181,74,54,200,212,48,161,216,25,162,186,142,10,150,172,214,85,16,136,2,37,93,192,197,217,87,132,209,177,248,199,200,22,90,81,250,88,87,36,83,203,192,31,67,82,69,174,156,179,172,142,5,208,154,64,45,39,207,216,232,149,255,234,8,156,245,52,225,77,102,8,231,37,244,96,53,254,29,63,13,198,182,243,203,135,73,141,68,227,21,155,139,183,226,171,161,166,69,60,183,198,218,84,36,143,44,3,72,54,140,55,138,186,174,153,42,181,20,227,189,217,133,190,219,23,104,146,78,12,218,208,95,37,74,78,111,190,62,95,49,76,228,144,137,11,194,110,200,225,32,173,31,146,85,77,135,43,201,50,216,161,150,54,66,241,169,231,194,21,201,199,45,235,154,135,253,91,219,244,248,179,86,231,86,134,75,155,79,250,255,150,209,151,9,54,84,195,158,68,14,77,21,152,170,31,91,178,64,175,212,155,48,66,54,8,0,76,186,239,34,23,13,24,156,45,138,213,154,134,244,37,82,227,44,30,181,207,85,132,23,170,109,217,54,198,170,108,198,213,189,149,186,109,221,95,253,203,44,238,60,35,103,145,65,7,211,79,81,176,70,202,50,10,34,167,143,220,151,138,80,135,173,199,173,116,15,200,59,206,169,167,89,182,83,25,196,221,235,228,148,216,2,157,6,33,94,33,130,131,5,191,164,175,75,129,166,87,148,251,7,52,183,210,185,150,218,244,184,85,83,172,156,188,203,147,17,181,142,182,36,4,35,54,154,226,18,89,61,89,150,90,134,242,228,231,28,172,52,67,230,173,245,31,73,255,206,168,14,73,75,221,6,180,253,253,188,94,168,225,37,156,208,222,142,31,241,66,156,136,95,235,171,20,139,90,161,196,13,243,11,210,241,76,46,234,83,18,246,205,179,46,88,50,73,171,54,84,141,226,136,66,59,86,91,82,238,33,57,29,137,136,66,45,252,48,251,131,61,253,156,242,227,84,85,1,94,60,189,77,40,49,191,17,210,251,236,203,74,222,244,147,216,167,165,31,24,163,222,22,251,213,9,232,57,21,64,196,29,49,190,223,141,138,239,132,96,13,147,199,166,245,86,133,108,95,69,23,19,130,135,240,225,181,234,181,90,254,137,232,39,94,194,77,2,254,20,167,86,179,223,94,136,205,156,104,133,141,63,40,189,65,144,133,181,0,229,38,30,179,166,92,4,182,80,98,56,77,140,45,94,14,97,35,145,199,64,73,218,8,10,42,58,210,230,249,64,18,64,26,50,52,151,19,209,37,243,229,224,145,81,236,33,201,205,251,60,151,133,68,59,51,69,63,9,56,56,66,12,52,35,50,67,225,86,199,134,52,219,19,163,87,36,131,78,224,223,59,179,246,13,195,173,224,49,219,84,159,179,236,242,162,193,40,234,22,218,151,206,250,235,141,147,9,250,19,93,246,49,12,162,13,94,86,206,170,162,22,192,203,29,173,171,7,227,181,25,173,37,75,253,176,202,103,181,247,216,75,3,40,152,70,148,83,65,163,150,18,242,207,205,235,175,140,197,252,241,35,180,159,21,231,28,1,10,173,28,61,179,236,158,8,189,11,21,148,242,33,232,157,15,177,104,131,150,229,249,229,77,181,235,174,36,144,53,176,10,91,53,209,196,196,199,39,226,67,75,18,166,235,24,158,91,229,81,134,255,185,65,195,161,44,32,246,13,171,198,40,187,63,196,162,215,146,188,147,192,90,240,224,9,55,28,231,157,206,39,174,202,70,178,139,82,149,203,187,33,141,80,52,200,99,35,49,198,94,186,93,29,82,86,141,154,215,155,206,180,157,66,224,80,66,0,81,239,144,159,147,4,149,74,206,6,64,49,253,161,199,152,158,152,133,2,88,54,54,182,178,54,78,74,251,167,170,179,228,234,173,2,219,62,177,64,7,62,89,23,161,235,56,196,167,99,152,186,84,148,195,149,163,7,67,102,225,217,229,194,26,185,49,111,184,37,38,176,219,216,233,147,105,233,42,49,210,92,173,78,138,68,154,57,194,72,187,30,36,142,17,73,17,158,163,113,52,240,249,185,191,70,239,56,160,78,167,160,82,212,228,86,91,136,213,130,242,197,139,201,188,202,49,193,11,155,7,202,156,72,220,207,174,140,23,160,21,7,131,214,64,143,63,230,232,207,199,227,181,5,157,173,29,34,83,95,177,5,227,14,51,66,74,146,142,147,229,145,178,70,164,191,216,23,192,178,249,48,0,72,15,92,243,183,167,221,66,224,109,167,73,31,55,46,197,81,165,225,255,247,232,181,238,50,209,80,87,5,90,79,68,188,177,227,43,37,2,42,176,25,190,29,87,24,239,56,143,122,26,73,76,69,238,137,14,232,79,15,71,225,212,238,11,216,85,213,142,5,167,253,209,10,222,29,81,152,175,85,188,41,216,159,38,191,177,55,194,51,200,226,147,33,148,200,236,218,46,58,139,184,226,3,226,205,169,163,66,26,92,132,217,254,146,29,151,231,253,142,222,53,233,198,155,5,199,192,160,87,92,240,4,47,82,197,87,234,211,240,217,30,55,40,74,236,46,236,163,155,0,95,50,224,85,81,52,35,135,16,201,24,197,137,2,153,141,212,14,184,210,151,37,208,95,254,74,249,197,138,238,73,178,236,75,18,79,21,33,60,9,76,144,79,89,75,180,25,191,166,183,195,152,176,75,185,202,249,147,23,192,129,234,154,80,93,163,2,23,196,214,67,250,183,15,223,172,146,164,14,223,25,236,89,6,28,139,145,255,49,168,171,149,18,77,195,12,19,196,220,245,181,179,217,241,92,88,94,165,166,160,38,162,19,29,40,42,189,187,27,94,40,72,201,174,164,238,191,57,200,25,213,173,203,83,238,237,169,90,48,86,74,231,96,7,158,11,228,172,216,135,161,4,91,93,207,163,202,226,254,185,19,64,15,83,235,222,218,11,11,93,192,87,86,231,187,149,195,148,135,17,9,12,96,81,84,244,70,9,184,0,158,34,230,186,155,164,28,178,230,211,90,254,46,189,148,161,39,46,234,62,147,215,52,11,75,184,197,72,251,247,30,183,1,171,58,129,238,7,177,75,87,129,90,240,136,202,248,184,23,228,230,237,51,159,11,73,198,169,137,4,166,204,82,84,212,189,217,8,52,11,247,224,45,0,149,41,5,201,192,65,19,142,90,62,212,230,230,19,220,175,215,98,167,89,153,0,227,48,169,22,179,48,201,200,21,84,10,194,245,238,21,184,27,80,218,160,51,215,55,159,75,229,39,13,56,168,184,55,223,178,220,225,216,51,52,191,155,45,209,35,169,89,189,73,171,154,42,162,181,156,160,224,190,227,44,144,15,63,225,90,140,13,19,215,213,184,252,206,149,253,13,238,66,195,205,15,96,1,74,147,236,225,187,82,255,14,241,164,88,130,157,191,207,180,198,132,187,27,142,149,193,243,26,239,146,32,82,57,183,43,131,1,78,204,43,46,41,144,242,232,187,89,208,191,3,170,156,153,95,78,60,219,228,28,164,91,189,168,222,210,34,167,254,168,233,162,64,51,192,156,250,224,190,234,33,42,233,177,86,10,73,25,43,76,192,50,218,57,139,10,54,131,251,210,233,13,45,38,61,159,149,190,254,199,87,163,182,81,69,249,23,64,184,212,175,53,172,148,26,91,222,33,203,62,201,161,108,55,170,189,225,16,213,218,201,172,174,47,243,192,206,28,31,223,63,209,19,158,50,233,170,146,233,246,175,242,29,179,233,165,90,231,133,0,205,225,62,83,231,190,238,182,179,9,241,148,108,179,195,230,149,178,200,9,227,3,252,23,90,48,249,89,200,27,238,85,180,245,107,78,23,50,72,205,209,242,76,158,241,224,254,84,236,237,169,175,71,218,32,69,146,65,193,163,26,57,248,233,207,149,250,247,2,9,70,47,220,178,36,200,92,151,20,129,170,219,7,3,93,179,243,148,174,9,68,14,93,19,73,160,159,237,22,38,97,248,42,75,78,155,202,150,59,10,72,96,42,83,139,205,59,172,17,69,106,5,165,168,93,217,246,66,96,177,13,109,7,18,244,71,220,189,152,31,183,6,216,144,247,77,204,5,177,10,161,21,71,32,95,72,220,225,23,15,13,6,192,70,62,145,93,189,94,1,235,175,185,104,177,35,13,255,254,29,184,90,249,74,55,65,166,152,199,149,157,230,200,220,15,160,211,34,197,87,203,69,70,198,194,0,135,176,12,183,158,154,50,183,183,236,29,150,22,62,140,202,45,197,56,31,192,72,230,237,149,14,56,53,182,215,90,18,221,248,48,241,250,171,42,220,59,224,205,249,1,179,191,207,164,18,174,247,58,50,66,72,85,164,179,10,18,172,250,37,45,35,6,179,231,72,79,241,243,27,208,135,204,164,66,231,212,252,45,5,83,114,174,208,137,175,90,24,248,230,92,162,227,157,58,195,219,62,220,40,43,175,103,66,220,27,55,202,142,95,163,81,15,75,183,213,206,163,248,88,134,84,63,0,21,62,65,15,42,186,14,46,223,45,177,133,164,138,52,12,88,148,18,22,1,155,79,164,146,206,3,63,215,235,217,189,37,218,55,72,70,236,149,220,155,134,24,213,59,31,219,104,178,151,30,62,38,209,209,230,144,16,255,158,22,248,198,163,45,193,211,221,173,192,9,64,196,147,175,78,33,85,188,101,40,207,155,233,181,249,121,45,146,145,182,144,158,145,229,30,68,186,194,0,233,200,194,168,70,253,116,247,192,20,23,234,234,226,2,48,240,47,59,14,79,79,253,157,40,215,7,170,180,28,176,52,36,153,143,76,87,149,175,32,61,220,92,21,26,44,141,44,79,253,58,16,183,35,203,178,135,47,52,222,219,43,167,16,182,10,148,219,144,245,20,161,250,35,42,25,237,245,220,230,62,81,15,170,199,102,89,175,2,152,102,13,188,10,156,8,175,229,239,66,76,138,255,194,138,76,49,68,138,155,152,88,189,145,54,31,84,70,38,235,35,35,208,15,27,73,17,239,236,235,119,96,212,96,248,242,22,214,175,242,32,226,75,7,14,148,193,86,92,229,68,212,92,0,245,115,27,209,34,42,15,83,15,48,68,226,11,74,48,19,174,6,201,41,67,68,4,27,224,36,28,233,214,51,205,12,64,228,49,242,47,68,19,48,207,245,47,82,26,8,175,216,251,161,210,59,82,66,164,44,189,226,71,145,32,33,69,4,241,222,6,8,238,23,235,57,37,35,6,41,15,213,254,239,244,4,36,55,66,49,227,178,7,17,175,241,17,66,191,47,24,44,186,27,221,211,194,222,36,239,77,195,222,79,174,216,202,255,42,180,202,7,0,209,7,16,181,188,32,67,47,206,53,230,52,246,12,197,54,169,251,237,253,241,253,83,162,241,242,249,14,25,252,228,210,148,6,2,55,27,15,174,246,34,245,189,12,191,247,224,72,243,17,181,29,57,13,20,241,251,0,205,41,69,10,220,193,250,52,12,46,198,9,98,197,60,53,190,73,11,234,61,31,27,21,232,214,43,1,238,11,246,216,218,196,58,164,88,254,2,82,250,77,78,60,62,100,81,236,75,42,30,190,49,67,250,235,243,229,78,89,75,37,102,233,42,52,25,194,45,247,67,2,36,245,205,0,81,22,228,31,8,39,211,96,237,11,2,32,24,70,2,205,248,75,72,10,12,93,19,16,8,231,30,8,35,38,224,29,244,84,251,24,0,24,66,238,79,57,189,85,238,15,27,104,75,11,199,251,60,52,46,182,30,75,227,209,95,254,45,254,68,20,221,240,19,11,205,217,1,23,50,17,78,78,96,29,65,70,234,32,42,67,61,65,239,101,234,228,76,250,253,206,12,18,30,195,25,184,202,35,37,35,69,24,226,60,220,7,182,33,85,74,216,215,70,202,15,246,19,28,232,198,213,212,216,82,228,18,90,241,73,18,198,11,42,20,42,50,51,125,241,191,225,197,36,216,72,201,33,1,12,56,36,248,182,47,212,253,69,0,188,189,73,77,69,214,91,212,194,18,10,26,1,208,227,243,225,44,251,18,62,20,193,152,103,245,255,217,182,25,66,54,192,170,48,21,36,247,41,75,20,66,243,243,212,221,87,180,42,236,222,230,204,1,21,247,253,63,17,15,18,27,69,48,18,57,202,16,18,55,38,6,200,234,43,22,227,163,211,28,184,2,61,204,70,239,205,202,242,37,234,215,236,28,77,232,245,20,64,62,219,203,12,44,194,81,57,220,254,32,92,230,228,57,12,56,251,43,100,0,239,43,5,240,193,252,73,15,5,203,213,243,246,29,200,19,31,219,202,235,81,15,12,24,210,206,221,14,254,94,44,97,17,34,39,16,205,80,50,15,213,193,47,24,252,80,71,80,5,8,221,29,17,49,67,48,162,63,19,213,77,218,74,191,229,14,21,79,83,4,75,228,25,52,232,40,238,204,113,41,18,235,2,101,244,212,3,224,69,0,7,245,253,66,251,214,253,18,192,208,58,21,189,17,247,217,1,255,18,245,111,16,62,27,92,252,242,8,14,203,252,82,230,218,250,38,88,194,234,182,8,18,45,48,34,248,12,9,233,223,201,189,46,9,248,240,235,222,241,68,44,85,232,237,188,64,40,233,187,36,69,21,26,15,82,57,26,234,36,229,70,183,39,226,3,248,246,10,223,232,37,109,238,255,248,14,62,7,223,47,64,49,9,83,247,205,212,5,43,31,48,53,227,4,39,41,45,65,233,239,103,28,14,36,195,26,37,240,21,15,114,113,78,250,199,19,55,67,15,214,20,50,28,239,224,194,66,208,235,45,199,14,48,220,3,203,19,194,7,248,233,50,221,70,22,224,220,211,61,204,29,229,64,198,18,43,42,42,190,25,35,247,182,72,199,75,23,217,28,32,17,72,33,233,230,37,4,251,230,41,164,245,37,224,196,237,197,81,207,14,243,175,249,212,251,248,20,227,47,20,18,253,64,68,25,237,46,51,83,22,244,70,4,63,186,253,235,65,45,36,231,194,54,255,155,17,212,0,52,20,249,195,217,193,14,15,73,53,4,6,244,252,204,76,66,246,50,210,21,219,234,41,25,236,247,195,60,200,19,44,47,29,226,39,71,72,23,229,9,184,212,67,228,51,252,214,224,207,19,238,220,209,218,90,9,66,205,217,215,210,34,216,57,43,221,18,40,48,244,214,188,213,36,64,193,68,240,29,197,230,38,230,231,178,27,70,247,213,248,17,85,68,232,237,36,81,185,60,35,55,15,49,8,62,5,5,17,246,4,219,24,229,69,250,18,52,250,248,211,203,222,24,239,62,192,209,187,223,219,206,244,61,240,226,38,90,234,203,70,214,233,44,5,214,209,194,250,221,100,245,235,5,190,183,63,15,231,53,248,246,237,30,230,28,57,25,176,218,16,242,58,192,33,184,75,179,54,66,24,236,25,242,9,15,58,216,180,19,32,201,192,246,46,119,19,249,67,207,24,248,239,24,178,29,230,48,54,56,28,25,255,255,199,37,228,35,47,244,182,214,17,252,60,240,21,51,62,212,172,251,211,26,194,182,20,202,16,179,63,182,38,190,173,208,58,68,241,8,76,65,213,222,195,23,22,205,182,27,236,233,228,16,17,250,74,52,44,2,222,199,37,33,62,47,218,66,31,15,180,248,53,31,203,222,66,36,252,177,216,36,2,252,189,201,32,37,5,68,221,40,219,248,193,66,233,12,12,204,11,16,55,230,185,231,41,63,50,198,1,42,15,11,52,181,207,76,227,50,240,23,10,254,232,240,41,232,211,253,19,184,71,250,28,61,67,220,255,191,72,223,215,216,47,19,220,217,9,211,182,13,73,18,71,247,240,189,35,67,211,193,8,24,11,32,249,6,196,47,17,82,74,188,228,36,65,222,30,25,70,42,30,18,4,239,224,227,60,216,254,242,25,206,232,218,102,31,31,70,26,229,62,32,41,16,191,18,171,208,172,61,66,239,253,224,72,208,183,189,59,39,11,187,25,23,233,254,46,231,173,248,16,241,20,15,179,195,210,242,7,16,241,250,227,27,47,215,56,21,29,15,30,4,212,44,22,223,198,248,4,29,251,11,218,187,38,64,224,28,52,192,218,31,233,225,247,203,37,36,29,63,97,56,4,194,199,39,75,179,46,228,203,239,11,233,159,38,51,12,164,163,212,251,249,196,25,243,46,247,168,237,182,250,218,197,44,188,47,1,45,170,171,12,193,197,247,0,39,5,25,195,242,50,254,207,36,180,30,241,233,40,245,166,221,24,38,47,42,239,81,46,34,210,232,233,189,88,55,226,54,195,17,202,214,211,229,74,17,28,231,255,91,67,183,209,180,43,218,54,189,225,55,246,61,63,214,72,23,230,217,8,37,68,175,253,232,165,197,6,0,186,250,64,254,247,6,34,184,56,63,65,227,57,24,39,47,193,58,61,238,250,16,28,231,51,161,208,239,235,79,22,16,26,23,60,162,250,48,61,198,226,36,84,229,16,181,250,230,39,49,39,173,217,194,30,226,252,17,253,230,184,197,4,30,67,52,224,156,201,211,58,225,23,57,7,231,69,243,185,96,227,60,244,202,242,189,2,2,181,67,42,184,64,203,239,178,230,64,7,56,222,189,239,20,43,18,84,74,55,74,41,26,232,48,215,229,15,45,6,36,180,246,168,5,1,67,230,164,21,255,68,46,27,187,25,171,41,253,86,223,242,215,7,254,0,24,74,254,195,17,0,57,16,231,246,254,24,164,19,197,68,231,220,37,204,243,251,172,220,16,230,221,218,219,216,248,195,161,239,48,224,26,236,19,1,39,249,60,243,213,229,41,51,42,217,254,243,190,48,27,26,209,28,190,209,19,227,102,21,24,251,74,197,28,200,173,199,24,234,19,169,50,176,249,5,247,21,74,199,199,11,12,67,9,67,194,172,212,55,245,185,231,194,70,228,7,8,239,217,27,248,64,232,213,27,251,79,28,19,244,251,187,162,202,175,232,79,242,22,61,178,246,26,231,35,60,91,233,221,44,213,36,206,192,19,155,235,214,223,249,40,240,69,217,207,214,48,12,34,52,16,234,244,63,247,249,85,98,30,48,215,209,12,226,16,29,221,7,47,238,247,35,193,229,65,203,224,42,232,225,231,186,15,250,22,245,18,190,58,230,198,190,23,34,216,15,245,235,227,26,59,197,249,6,198,216,21,18,254,245,45,241,15,84,211,189,202,222,54,186,9,252,254,234,69,54,242,79,217,17,17,1,254,53,149,236,74,177,191,220,210,36,62,181,186,46,211,237,38,218,214,19,37,74,245,62,62,62,219,70,193,224,70,35,233,1,62,25,218,48,197,235,231,3,8,22,203,11,15,224,237,38,21,5,47,194,175,43,221,59,16,20,167,16,59,81,66,240,251,227,186,85,48,215,5,193,71,208,33,33,250,51,23,217,238,254,191,56,253,224,34,6,226,234,44,209,28,18,36,209,247,194,94,56,32,167,97,191,222,19,8,72,28,56,180,100,188,52,237,214,243,11,241,187,251,61,17,24,22,159,55,51,246,198,62,240,187,224,42,196,201,35,55,210,251,78,43,7,179,42,21,56,248,237,235,185,208,37,196,206,204,228,250,197,212,6,225,87,0,35,51,237,49,219,1,23,199,229,159,7,163,225,2,242,19,33,50,29,164,165,58,236,235,218,227,188,215,164,248,253,63,186,0,172,235,39,74,236,248,2,19,25,12,43,88,176,87,32,34,41,194,49,26,88,22,14,208,37,75,188,67,88,197,232,6,207,8,207,33,213,200,196,209,194,231,239,69,213,74,40,252,57,192,223,239,0,254,46,25,76,82,245,33,55,251,186,244,58,203,3,230,185,1,2,6,240,21,32,207,58,193,187,16,244,10,193,47,253,251,221,236,51,21,229,157,247,31,42,13,7,65,224,58,224,234,64,3,8,9,45,60,11,66,60,3,217,232,208,22,249,7,40,239,195,208,79,191,59,207,25,215,34,212,93,65,18,33,8,199,56,16,59,29,34,223,200,1,63,204,68,54,223,252,48,76,75,65,239,21,66,79,13,36,194,15,38,223,35,244,72,17,33,249,67,228,60,192,236,209,212,208,73,25,11,19,28,34,227,173,249,18,74,217,196,76,9,18,37,10,62,251,247,209,36,202,209,26,46,23,238,38,227,229,9,14,233,65,218,243,206,233,182,97,39,250,235,50,167,33,247,205,202,202,70,220,60,171,167,80,45,216,47,179,42,243,20,68,59,245,169,240,210,247,6,4,68,217,17,7,174,16,248,232,202,32,243,11,27,172,12,112,36,249,241,194,46,177,223,175,26,218,52,195,63,7,44,15,246,44,205,186,177,160,221,17,12,158,16,215,21,11,52,41,192,64,176,38,190,0,193,195,181,249,170,244,234,215,26,209,69,73,9,6,210,181,177,220,27,189,53,9,52,226,28,255,49,72,223,188,23,220,75,193,209,208,13,47,49,25,254,6,76,55,238,75,234,20,166,30,67,177,39,215,182,58,235,38,178,71,213,15,205,27,237,204,91,182,243,37,57,71,245,26,250,1,53,246,210,24,188,239,32,190,225,244,24,197,240,248,85,238,240,9,50,52,174,50,211,209,248,243,254,198,193,10,35,211,216,64,35,25,44,236,51,216,232,15,242,1,215,52,209,34,205,195,24,184,78,1,22,200,227,80,242,226,75,250,225,7,79,14,20,227,3,88,6,59,253,218,35,221,198,1,46,253,13,16,247,27,20,245,229,2,58,32,188,184,7,77,65,237,61,1,59,74,212,68,86,218,81,62,2,235,2,2,30,190,223,237,24,75,90,92,47,235,218,244,245,11,35,7,48,193,58,225,52,30,55,220,228,241,197,64,16,197,39,1,63,56,190,203,33,39,127,242,199,223,48,233,6,203,17,245,25,14,212,239,197,17,37,228,210,251,11,197,224,241,183,237,220,243,43,69,42,57,42,254,210,8,224,52,253,11,60,88,75,225,225,39,215,15,59,14,11,186,21,23,59,227,245,209,216,221,49,28,242,176,241,72,246,226,8,12,49,50,169,173,239,71,63,247,188,200,11,204,107,212,63,0,97,52,225,73,184,193,211,29,23,61,51,67,8,6,251,9,255,23,255,254,219,45,64,55,26,168,176,43,111,28,37,219,85,64,63,206,20,207,229,58,174,5,77,206,208,43,32,63,228,47,11,68,219,9,46,2,173,208,247,15,57,216,203,198,50,9,178,246,15,94,188,65,212,32,30,82,1,182,191,14,238,37,240,44,59,35,185,253,227,11,229,64,17,76,8,249,64,63,253,188,87,230,224,63,8,11,255,17,248,43,42,107,8,235,45,203,12,57,58,86,58,2,8,50,56,61,182,195,232,50,190,40,222,223,217,255,8,31,50,9,55,250,15,44,43,209,53,65,253,43,213,62,82,47,251,54,235,57,49,233,183,208,36,179,221,1,205,64,7,10,244,47,54,42,0,96,193,215,28,85,42,233,64,46,4,223,206,53,220,219,66,36,46,18,234,188,228,50,10,247,67,241,241,32,68,217,68,23,51,34,219,242,10,223,200,205,75,249,16,239,245,191,242,52,220,10,61,35,243,231,184,40,194,24,46,81,248,180,246,218,23,88,228,97,210,253,63,76,5,61,58,178,45,181,18,193,219,223,212,230,70,244,233,227,217,253,41,36,33,39,228,202,218,242,8,104,242,235,36,10,208,12,214,181,81,0,220,191,189,6,234,236,234,25,1,64,246,47,33,60,73,196,2,239,180,1,172,239,32,229,8,209,42,54,66,43,60,14,199,11,234,255,5,3,19,60,34,39,5,206,238,243,56,26,255,250,67,213,223,74,13,208,23,249,36,189,220,149,13,34,23,194,207,244,238,11,65,227,193,45,253,57,23,29,33,197,51,195,252,246,173,233,33,38,7,11,44,211,226,5,21,13,15,206,0,15,252,55,34,20,0,253,249,60,44,198,56,60,51,81,219,205,249,31,67,218,253,71,42,209,238,227,10,224,196,189,0,22,222,255,214,4,200,189,15,22,83,243,226,196,23,82,231,72,252,55,240,57,51,235,213,225,29,37,105,236,17,224,58,222,17,189,12,33,34,224,240,247,76,212,206,192,47,13,218,37,40,117,19,41,198,73,64,66,13,254,157,148,223,162,178,224,201,71,182,195,146,30,59,29,180,129,141,46,208,215,191,31,158,218,27,208,237,74,169,29,208,247,56,169,229,185,161,221,44,69,48,148,193,242,82,138,223,150,243,195,158,56,86,29,213,70,29,155,56,35,31,155,254,237,63,200,210,184,101,191,138,56,210,208,155,151,35,52,162,66,34,206,82,205,70,86,14,43,108,236,66,92,12,104,84,62,180,226,215,199,183,146,153,49,121,20,22,59,74,84,221,113,249,48,26,206,14,34,146,185,239,232,252,46,19,188,48,36,176,248,84,180,170,80,241,137,88,210,186,30,249,146,45,187,202,247,241,204,175,243,46,235,25,140,89,97,90,208,69,9,171,249,166,79,42,148,61,72,169,10,242,214,173,81,19,31,248,21,67,149,14,120,12,171,55,25,14,18,180,37,220,189,252,18,2,170,31,209,227,185,72,254,47,191,200,222,18,240,77,207,204,31,165,110,59,23,222,183,7,183,14,220,42,241,238,27,185,201,163,17,39,104,166,197,15,175,200,48,151,214,213,237,182,161,134,113,178,242,34,157,5,221,45,29,84,148,243,195,218,41,247,191,51,37,207,39,62,85,69,221,193,81,206,248,234,235,22,3,135,160,186,194,29,96,171,18,57,38,250,133,81,35,246,28,255,54,20,195,215,48,40,179,27,65,57,217,62,225,10,235,184,232,255,5,191,6,30,24,44,169,183,248,167,155,192,49,206,95,38,30,239,69,211,42,25,75,243,166,210,22,145,47,202,176,111,199,203,9,79,247,148,156,10,51,191,17,156,60,170,211,235,7,78,34,63,161,189,8,183,188,63,36,211,74,72,14,185,170,235,37,190,143,196,135,235,153,163,176,197,187,224,58,176,174,55,143,248,53,51,84,22,77,32,197,25,183,23,233,217,220,175,228,82,238,43,237,252,77,84,25,75,51,140,105,184,169,211,89,187,160,235,46,72,164,220,213,54,176,15,64,243,156,68,152,74,0,12,177,247,155,162,134,218,234,162,239,150,107,192,151,194,244,237,195,158,177,231,232,224,54,86,22,107,147,84,178,22,222,54,47,137,176,204,226,178,78,71,73,10,206,70,95,240,163,199,174,53,80,91,167,240,59,78,217,54,151,239,247,204,218,246,204,144,250,19,207,98,70,18,97,67,236,95,69,234,68,205,0,53,214,46,24,156,224,3,83,33,20,139,159,206,26,187,164,147,156,182,136,96,47,150,24,19,243,61,33,246,169,177,208,140,58,63,0,79,106,240,48,163,165,178,66,221,212,50,238,241,68,236,249,82,215,36,248,225,5,150,58,161,163,24,153,1,146,28,54,37,180,61,240,170,77,17,245,142,212,99,206,141,180,240,244,84,49,168,24,234,240,48,181,215,43,73,61,216,82,19,194,91,177,194,30,103,53,58,208,139,247,161,24,72,3,186,231,246,49,180,94,210,21,11,34,160,246,93,160,181,230,148,161,90,171,76,253,141,46,229,173,209,7,69,254,228,184,84,186,207,147,40,173,251,91,171,160,163,71,171,10,146,221,161,218,224,71,195,43,45,228,15,76,132,223,138,154,61,249,158,17,3,229,164,90,108,222,69,23,92,212,52,81,156,250,16,102,142,6,85,191,160,69,215,2,178,183,210,121,251,27,150,196,234,199,212,237,155,207,227,236,242,167,238,224,44,91,20,184,58,243,240,247,143,38,8,74,38,81,135,50,223,196,42,175,252,233,3,214,149,149,55,30,205,78,83,205,231,67,8,49,237,30,67,157,8,48,171,79,44,22,244,46,85,180,204,221,175,212,231,201,191,178,164,237,203,15,252,89,38,55,231,169,93,213,42,2,16,49,245,187,37,223,149,24,94,15,235,227,74,74,142,104,30,95,28,147,28,73,231,237,229,60,150,248,91,70,37,228,149,47,249,85,91,35,13,18,94,90,214,52,6,208,35,0,81,172,17,98,203,206,26,155,60,145,206,171,63,212,157,255,9,7,17,54,95,228,68,49,178,69,97,67,181,214,211,160,79,204,1,93,236,178,43,250,137,35,67,40,89,233,48,28,58,30,238,186,26,18,248,42,53,209,51,69,16,92,186,105,90,211,207,6,48,208,250,222,252,57,22,204,245,88,83,223,223,214,73,83,207,237,73,230,167,145,230,185,191,176,242,155,173,61,251,84,205,207,3,169,24,43,94,112,156,197,158,16,233,189,51,187,133,179,222,0,88,29,229,89,27,168,209,75,241,105,83,27,57,237,184,81,93,45,217,240,146,30,215,94,26,77,253,31,24,6,174,177,179,199,200,15,73,80,28,1,185,93,140,4,32,185,177,69,21,143,255,22,208,23,45,154,187,52,252,31,223,175,251,104,169,56,248,181,66,23,54,80,208,209,146,10,62,224,0,52,251,23,149,213,51,61,248,201,211,187,158,74,55,214,142,82,161,235,32,24,44,169,236,167,73,175,55,51,11,0,181,238,22,82,203,10,12,90,69,28,242,172,62,142,175,167,37,212,165,202,179,214,17,150,169,177,95,98,201,239,146,192,174,16,215,72,216,61,48,159,80,209,11,10,202,188,247,189,57,72,50,221,107,200,34,45,50,78,99,9,44,227,186,251,56,49,200,61,254,234,210,140,22,82,47,89,71,65,237,63,14,95,63,47,76,148,104,66,181,163,250,250,149,181,12,75,81,81,54,11,86,148,227,157,64,221,175,30,8,199,138,6,192,72,222,33,251,227,214,142,51,230,233,89,208,35,237,144,55,172,207,192,238,101,176,100,177,32,168,225,62,74,213,149,151,175,136,18,66,40,156,205,136,14,60,21,136,218,39,75,254,160,219,43,6,61,133,37,172,27,201,211,135,202,255,21,205,186,138,236,36,166,28,152,26,61,218,49,28,70,2,58,229,168,216,77,193,3,163,189,34,17,157,24,4,206,44,80,253,87,177,166,19,161,244,146,184,226,38,72,13,205,57,97,2,210,39,168,55,10,15,173,208,237,39,26,215,20,74,198,115,53,180,93,253,252,99,43,58,30,75,227,235,196,178,197,231,141,197,11,92,229,190,55,169,50,209,161,178,55,218,87,226,79,14,202,25,197,44,9,69,188,73,71,53,205,42,84,31,44,176,33,42,228,134,157,215,240,82,94,18,52,233,219,29,13,27,17,91,17,184,193,74,224,45,90,162,233,155,223,177,207,17,95,205,181,30,177,73,55,171,93,90,168,28,48,55,218,89,179,35,223,177,46,232,187,195,167,255,56,209,61,226,5,81,31,238,9,23,188,209,78,163,51,12,206,202,178,1,44,168,249,164,100,190,244,231,80,201,14,46,249,55,9,59,165,93,30,233,212,139,82,90,42,191,232,60,66,238,39,69,245,98,235,70,77,190,200,148,168,0,230,51,92,95,134,100,209,174,97,20,171,186,1,192,52,147,189,134,94,194,18,48,31,161,200,70,83,254,62,93,47,43,180,154,74,152,161,47,87,210,14,59,82,210,11,71,68,184,201,66,38,157,75,152,114,221,235,233,15,214,161,3,243,93,151,208,11,139,25,183,11,155,62,28,213,34,244,19,23,226,238,30,0,200,88,198,27,38,252,184,234,238,184,236,148,18,51,237,250,76,35,183,200,161,233,248,71,166,171,86,91,229,171,81,14,173,145,101,164,13,172,17,47,155,154,22,93,238,249,6,242,43,229,195,163,46,66,84,188,242,200,241,85,9,84,3,65,194,231,34,203,229,84,0,1,74,188,42,220,57,61,46,28,186,62,1,169,24,234,180,210,183,221,145,37,76,155,80,145,34,152,0,234,33,35,228,47,52,227,227,193,240,209,61,145,225,145,101,203,206,9,44,239,49,68,69,166,233,6,43,35,9,154,73,222,188,195,83,46,151,79,247,180,174,55,55,23,14,18,34,80,139,53,31,65,134,80,160,206,0,208,150,79,166,28,231,194,147,7,226,5,174,176,161,35,195,78,227,145,22,76,140,46,206,5,32,174,220,27,218,11,43,249,210,66,167,206,37,219,196,176,232,29,17,5,203,222,60,71,61,42,19,226,75,52,14,59,221,253,158,195,233,7,155,26,200,232,19,196,8,75,240,10,29,46,32,177,140,80,45,103,172,84,78,0,10,144,252,63,54,56,156,132,229,135,72,169,229,45,147,216,23,186,17,92,180,175,160,204,79,228,245,217,91,241,222,235,141,63,232,187,69,49,190,230,59,55,77,48,1,7,4,37,0,72,9,74,197,244,63,76,55,7,149,232,251,141,134,0,133,71,158,227,1,59,156,199,204,65,229,245,205,185,155,202,239,10,228,156,166,174,6,243,75,203,24,48,91,72,39,147,226,218,41,238,44,96,252,229,82,84,225,213,204,80,10,34,255,252,93,67,167,185,101,39,34,233,67,240,31,205,217,144,191,13,144,28,144,82,51,56,184,86,192,59,96,247,95,84,109,209,205,23,73,84,85,240,252,215,182,17,24,167,86,44,191,241,13,47,173,195,13,25,210,64,67,161,232,47,222,11,239,239,50,244,161,198,7,72,74,190,168,189,175,211,217,73,59,37,226,173,94,251,30,10,223,30,197,9,69,192,231,1,46,39,69,250,93,43,106,42,55,4,163,73,97,27,97,248,168,51,41,79,87,31,249,1,44,211,203,62,89,187,239,146,82,1,217,198,38,194,204,12,71,62,230,166,3,26,60,241,252,58,170,234,90,45,89,32,151,134,189,142,190,135,73,47,211,86,54,197,45,10,84,183,38,167,184,192,30,4,59,252,252,247,36,252,101,38,187,35,48,202,18,139,162,209,146,179,158,59,18,144,202,80,151,189,80,94,140,211,154,248,23,243,255,19,140,84,41,103,253,80,153,192,211,78,178,175,151,239,219,208,22,75,97,143,85,195,86,185,159,79,228,9,41,6,229,15,11,97,165,81,6,149,245,43,210,37,214,37,41,149,159,211,231,208,171,4,175,85,164,66,246,240,234,234,63,155,130,222,219,23,26,28,218,245,22,1,242,1,16,205,170,73,238,62,178,42,53,98,34,210,4,83,229,222,95,161,171,42,152,203,4,213,219,64,42,185,67,190,208,29,238,22,250,219,102,19,73,231,94,227,177,172,156,106,187,36,145,189,67,235,178,5,83,146,73,81,26,19,186,67,191,81,64,162,241,223,208,242,230,195,87,245,39,242,63,183,58,28,152,177,156,100,229,15,175,97,167,66,235,227,160,185,179,92,17,8,102,199,165,232,94,47,210,245,50,92,93,70,199,250,145,172,232,7,15,32,222,167,174,87,17,245,200,228,89,193,76,0,105,197,0,214,227,95,61,142,22,153,15,30,169,14,26,237,72,42,164,30,36,230,163,166,25,10,157,188,77,14,191,38,82,237,159,248,255,151,168,207,92,197,1,159,17,149,229,208,212,10,184,171,142,24,172,193,24,13,14,31,184,83,183,202,215,18,247,75,184,156,200,180,104,183,232,87,173,76,165,19,198,202,27,197,221,248,244,248,194,212,142,71,93,221,146,84,101,135,68,247,217,153,220,68,154,49,186,173,204,12,92,143,237,149,177,223,64,11,29,51,205,34,33,72,151,9,71,241,181,5,221,60,83,196,174,73,203,20,178,11,38,101,153,47,232,137,53,238,41,248,74,101,82,234,81,57,91,205,54,78,71,87,81,164,229,188,241,37,0,22,172,181,172,82,204,139,55,225,11,194,137,184,167,89,163,6,213,69,225,158,150,69,69,191,183,251,49,75,240,193,193,62,47,74,3,219,22,21,11,62,31,203,192,5,17,156,222,204,252,19,174,171,195,113,13,149,223,77,224,189,156,65,220,178,159,172,25,108,227,204,28,7,2,55,89,69,66,191,188,229,193,22,151,87,69,199,213,234,170,81,32,66,32,40,31,182,251,212,224,68,237,4,87,83,136,176,32,171,76,9,25,197,190,232,208,34,70,236,254,45,66,192,157,246,192,247,234,30,77,157,67,208,209,9,30,43,15,255,220,101,216,210,218,44,161,136,66,196,20,213,151,10,33,178,166,244,67,190,203,79,36,151,169,160,99,248,226,65,234,219,199,95,75,98,194,71,81,0,103,95,157,209,62,156,42,155,254,49,219,239,72,139,150,56,154,169,173,214,66,59,41,150,236,150,166,210,3,160,43,64,247,212,71,164,38,236,205,58,228,227,167,165,224,190,225,58,198,246,80,209,150,25,233,173,171,227,177,149,195,56,248,208,157,58,11,156,248,64,202,92,208,244,223,181,226,8,96,240,47,149,169,3,231,7,67,149,165,18,37,143,26,202,96,241,204,218,205,161,23,162,91,236,172,175,209,225,156,43,45,250,92,65,185,200,147,137,69,29,162,232,40,90,253,37,181,35,12,158,29,168,42,47,215,198,74,187,71,139,30,92,236,177,207,164,56,176,199,66,37,31,141,164,231,202,23,35,214,151,178,243,51,210,59,59,21,232,49,157,70,248,11,225,154,221,141,234,179,230,247,62,253,36,243,253,142,189,62,29,99,192,156,48,4,231,88,176,90,221,159,3,39,181,202,54,180,229,84,232,44,2,234,65,184,212,164,204,41,171,183,223,18,236,0,33,79,201,216,30,12,173,30,251,216,83,232,243,200,96,144,27,28,252,206,94,132,11,9,61,58,75,61,60,243,2,163,89,71,44,163,11,164,71,152,162,245,162,149,178,167,253,93,176,7,156,73,184,110,217,234,69,216,74,27,166,26,169,3,191,29,32,167,189,195,251,149,243,59,56,176,40,36,167,21,155,163,151,3,233,99,213,165,236,75,214,90,153,81,139,177,197,149,228,142,165,13,75,74,79,204,240,87,34,25,40,57,242,52,162,65,184,227,175,236,72,9,214,136,167,22,132,164,74,4,81,152,211,67,253,218,57,183,212,46,205,179,32,0,201,200,155,245,187,177,224,85,144,201,98,146,219,11,210,169,155,42,22,197,184,81,21,52,68,238,212,251,200,43,22,220,204,32,187,220,38,211,184,48,4,86,108,138,185,217,68,243,51,21,235,44,182,253,230,62,218,169,13,238,51,58,9,150,197,181,12,27,66,250,238,216,158,170,98,19,185,183,54,9,27,235,213,151,216,71,2,166,242,189,53,45,209,185,10,29,234,210,7,253,201,12,146,16,88,173,34,249,27,80,7,62,237,157,246,3,153,149,9,228,88,99,184,204,235,92,88,151,186,49,17,17,240,51,151,81,32,58,161,248,229,191,209,194,138,248,166,54,214,33,136,139,212,185,212,249,10,1,46,17,73,14,254,27,79,146,64,198,70,135,158,129,93,43,234,83,140,195,255,81,152,163,135,228,129,10,142,226,158,203,68,29,62,246,46,132,233,33,255,249,12,188,228,1,119,233,158,76,21,25,44,63,157,39,157,48,65,83,70,255,169,12,109,250,109,89,56,229,202,193,48,155,144,68,85,199,29,162,210,15,79,51,26,208,187,51,54,217,211,215,3,8,32,170,32,187,117,85,228,48,224,91,82,34,68,26,55,77,190,186,219,251,214,68,239,236,218,166,218,133,36,177,157,225,202,36,213,182,219,76,143,192,4,162,170,148,89,67,235,57,178,175,144,254,72,26,209,65,73,214,182,253,83,98,139,39,225,12,44,7,58,85,58,244,46,9,65,210,44,215,78,224,0,250,10,255,183,57,94,209,185,67,62,82,234,241,206,188,32,180,29,155,174,250,134,255,227,81,24,53,192,180,178,186,179,9,166,136,193,47,144,8,41,191,188,133,237,205,28,108,233,140,76,93,21,154,198,215,16,223,231,31,239,208,182,246,182,22,244,26,251,58,195,30,193,208,42,66,254,57,95,16,60,2,90,22,96,255,41,138,58,64,234,60,17,157,187,174,24,143,238,227,63,82,42,201,207,159,32,168,195,64,249,208,207,231,183,16,142,204,45,2,200,84,149,80,82,66,121,65,253,11,233,164,75,192,92,198,27,80,190,255,243,171,226,23,191,76,220,240,183,142,8,226,74,209,22,6,168,14,18,186,24,255,230,162,52,53,174,41,146,201,96,22,248,79,207,250,8,186,22,87,207,154,58,74,0,187,192,192,189,36,69,3,218,0,131,193,197,175,176,231,44,135,133,187,67,95,204,240,82,92,19,50,235,4,15,19,134,37,170,37,166,197,38,48,1,12,233,239,129,62,217,229,5,177,52,94,170,243,7,181,39,181,36,246,26,221,252,199,192,49,42,63,139,50,103,84,237,198,229,190,79,133,23,75,207,157,173,223,190,223,91,191,8,152,146,87,39,207,25,93,9,145,203,201,216,218,0,36,193,31,225,209,223,221,190,38,223,206,5,229,75,12,222,146,221,152,92,217,200,245,193,89,21,233,47,13,209,172,222,208,184,19,196,10,62,4,160,78,91,104,94,177,70,162,184,236,201,44,4,197,27,212,205,15,50,254,197,223,229,191,82,50,11,251,58,253,59,196,186,141,130,169,148,214,209,215,253,217,74,154,85,178,248,160,209,209,68,20,254,145,197,54,165,195,27,161,21,102,86,168,16,163,166,76,201,242,219,26,190,36,249,74,91,199,238,89,179,23,148,201,23,145,8,133,236,174,33,78,204,0,85,3,133,191,197,87,64,226,65,23,245,95,240,144,34,219,88,252,46,29,152,153,152,86,186,57,186,177,215,246,173,238,140,173,252,247,7,71,224,47,39,234,242,27,79,41,250,237,37,224,200,255,239,62,233,78,174,245,69,206,34,191,77,102,71,60,244,248,9,214,182,158,62,102,29,210,22,252,8,14,212,177,183,181,176,30,213,167,251,251,146,64,156,227,28,55,160,36,1,33,226,171,60,166,197,203,89,155,10,182,22,63,52,56,10,174,17,80,133,152,67,163,152,47,144,79,87,68,211,30,196,252,205,123,66,2,190,75,171,154,165,195,87,103,160,10,85,78,166,216,142,84,68,255,181,187,61,200,219,24,83,58,20,198,27,136,244,73,207,53,19,62,173,37,195,2,86,144,214,43,18,72,210,249,244,57,96,133,91,233,255,79,144,228,228,229,39,209,63,58,73,220,134,245,144,87,231,238,218,79,28,73,166,234,21,3,206,191,251,33,225,66,173,252,24,177,141,80,45,196,153,72,178,32,95,160,14,163,57,45,228,198,179,53,159,204,28,237,8,230,230,22,211,74,24,35,35,40,69,225,200,90,224,36,46,217,134,215,29,25,10,62,219,53,155,86,166,40,53,61,214,35,90,220,24,243,7,226,212,60,36,189,153,237,238,217,181,156,28,143,55,13,0,58,107,154,134,205,209,98,138,78,130,42,75,196,83,188,78,177,138,199,43,243,171,91,56,217,85,227,152,50,33,41,231,76,224,24,175,196,226,227,239,179,92,250,191,83,29,220,75,54,138,63,240,11,159,92,196,228,246,114,83,51,138,6,202,115,38,39,149,203,51,147,214,232,220,139,159,133,215,55,171,59,237,50,198,168,220,249,131,248,181,1,88,84,182,244,7,218,97,209,167,163,147,54,137,25,219,31,158,140,11,12,144,147,16,231,230,197,231,243,83,56,49,110,218,34,91,95,184,232,76,227,223,26,20,33,92,232,51,152,199,240,170,219,231,48,185,15,82,85,5,163,153,46,249,44,78,6,39,198,204,224,17,190,176,232,207,223,60,147,78,218,33,13,65,28,242,43,74,167,24,45,55,37,7,66,231,202,160,194,73,183,78,229,238,146,141,56,55,82,106,70,165,68,181,22,135,234,249,130,73,163,65,73,134,145,207,154,242,78,160,94,253,73,34,239,17,15,189,176,162,86,206,88,199,156,170,212,249,156,211,92,213,46,153,185,192,209,196,226,70,107,56,14,152,3,35,67,78,178,71,235,183,194,8,196,143,173,250,172,59,228,230,217,162,26,56,34,151,84,14,210,233,110,249,32,140,206,188,223,30,1,157,165,255,8,245,96,39,200,110,24,14,22,60,62,188,35,50,8,141,60,235,251,231,5,224,47,148,67,18,52,157,147,253,19,18,219,8,149,64,76,233,41,153,251,13,181,200,242,255,23,204,132,210,77,168,163,212,243,50,222,34,135,30,171,57,10,14,233,131,61,38,237,57,49,251,42,143,229,16,160,22,160,209,219,92,25,172,48,134,8,44,181,233,29,74,142,28,195,250,144,130,189,27,37,196,136,238,214,227,193,158,221,161,149,10,60,94,3,52,200,189,161,155,247,167,254,226,13,164,148,39,172,181,241,91,173,199,252,69,69,73,114,15,69,34,180,18,174,77,164,131,65,159,36,204,29,236,28,250,5,91,164,94,83,160,57,136,38,50,134,165,144,80,3,181,25,22,68,35,66,215,141,185,165,148,154,91,7,110,22,85,5,182,153,212,226,159,55,57,197,59,131,165,189,237,26,200,12,239,222,54,96,224,42,133,146,245,228,12,196,31,221,155,250,202,59,46,222,192,56,148,27,22,228,200,58,40,197,53,207,179,248,68,221,171,182,174,83,255,222,56,92,176,228,160,66,162,72,218,202,0,236,56,88,18,148,205,167,15,8,34,56,92,91,220,46,39,57,246,167,230,188,20,195,219,107,167,61,199,208,249,228,16,173,87,7,214,234,28,41,59,219,3,172,164,58,236,52,175,143,182,42,130,64,231,174,101,160,192,241,29,90,200,141,142,16,85,3,121,86,253,4,178,3,12,160,69,235,96,12,226,76,139,38,141,241,194,89,198,255,224,135,25,61,152,202,241,20,167,90,7,38,241,215,165,6,150,211,195,213,84,181,46,69,89,201,215,167,154,75,191,230,59,139,192,163,78,208,0,167,196,3,18,95,152,166,216,72,209,37,254,184,207,7,214,64,207,66,142,100,203,155,177,233,159,82,163,169,88,87,134,204,16,83,77,178,148,228,45,246,251,41,160,64,150,238,212,35,160,21,175,60,180,210,208,24,101,7,197,165,207,216,144,192,253,149,231,236,221,233,254,149,219,222,136,154,3,212,77,211,74,95,0,217,226,50,24,223,198,131,186,53,148,143,132,30,16,147,167,74,92,73,93,223,244,249,154,195,136,11,7,77,61,40,29,232,214,62,225,85,198,159,61,173,216,210,43,61,183,247,210,250,23,41,228,222,238,135,219,168,250,158,221,49,178,238,135,62,16,62,72,199,193,49,233,231,169,250,132,55,242,2,209,101,249,35,210,253,176,149,154,238,90,80,190,196,41,9,219,32,191,225,153,123,145,28,10,137,41,47,138,70,180,220,200,88,16,61,192,243,234,234,78,179,234,213,218,1,15,229,229,101,4,32,184,169,214,139,35,53,138,90,186,217,73,18,7,211,79,216,204,152,173,76,229,218,192,226,244,32,202,45,160,30,227,36,43,226,197,141,209,177,214,156,135,154,149,21,215,246,163,182,221,179,238,35,6,12,171,251,95,227,213,182,208,191,150,72,134,91,50,22,195,158,0,28,246,189,214,254,252,17,61,79,60,54,88,17,92,211,92,96,71,255,148,234,60,7,159,222,22,167,84,43,58,222,223,20,187,222,131,192,95,135,11,69,227,84,203,69,40,59,5,195,61,49,30,91,236,58,214,89,191,234,160,227,164,167,81,43,170,179,91,191,214,150,214,209,154,65,84,213,133,177,31,234,238,24,57,86,173,96,173,231,218,173,197,63,130,243,74,155,90,7,70,51,207,75,2,178,85,248,77,216,70,206,240,253,144,213,2,225,225,37,200,225,24,234,1,88,227,92,67,231,83,250,49,62,193,145,199,223,72,39,198,63,35,84,160,174,194,189,37,206,243,247,201,14,215,37,157,62,219,198,202,2,84,184,72,68,240,229,41,74,167,116,161,212,191,75,225,14,205,78,224,221,143,211,25,193,76,145,232,216,204,173,73,152,31,161,154,10,210,209,77,11,1,194,195,166,83,144,69,31,9,167,165,54,149,37,236,28,62,84,60,207,41,30,226,208,40,143,17,200,208,183,213,71,151,159,153,223,223,169,8,252,174,61,206,75,65,167,72,220,222,254,230,63,36,10,76,141,205,10,168,218,68,222,255,164,3,39,168,209,136,53,26,35,40,252,95,21,71,201,195,255,220,176,187,25,161,188,30,149,83,42,229,18,176,42,12,155,94,202,176,86,8,6,173,54,25,154,151,49,230,4,73,9,61,216,12,31,188,43,43,83,33,33,212,244,172,248,200,174,209,145,150,14,22,194,92,36,242,187,149,175,192,77,75,241,222,197,153,131,252,240,25,29,226,146,186,42,89,215,72,16,210,45,58,239,217,78,102,221,52,219,48,205,45,194,28,255,69,8,109,163,32,144,133,64,26,184,55,29,227,238,171,227,170,211,251,197,8,133,222,215,41,43,3,209,17,207,176,61,27,238,254,36,242,154,160,235,4,51,29,134,255,234,114,153,50,165,130,193,214,169,145,254,48,25,254,39,79,91,209,143,122,149,227,14,160,243,24,235,98,212,4,151,79,168,42,89,82,187,186,212,17,155,34,165,196,48,47,203,9,0,219,207,208,209,174,179,45,37,143,251,246,26,201,24,75,214,55,207,79,17,138,186,213,248,86,58,151,191,73,56,16,33,59,72,17,69,206,57,12,237,226,84,244,176,240,164,183,241,29,21,70,49,246,18,204,194,131,225,224,24,66,26,72,26,186,67,75,179,213,202,91,231,251,216,78,195,88,78,211,132,215,199,91,150,54,196,162,238,153,83,246,240,146,57,224,64,160,158,120,190,5,36,138,139,251,202,70,244,0,92,166,138,79,216,2,69,252,245,31,21,32,7,63,231,253,229,224,48,55,145,176,172,45,176,154,192,83,182,33,85,80,31,105,223,44,201,195,29,82,48,157,95,228,208,28,85,179,96,204,98,192,89,65,214,9,78,226,134,0,208,141,39,137,149,23,94,43,148,0,43,26,3,136,14,78,14,198,63,144,206,241,212,30,68,10,201,63,251,69,89,21,67,221,136,187,78,64,179,67,22,197,16,57,131,49,200,181,2,37,42,78,177,149,213,18,140,209,59,79,146,185,140,46,91,100,138,167,71,252,55,4,210,242,70,176,236,32,15,194,115,242,5,84,216,159,222,75,22,93,176,142,11,83,132,164,191,50,4,28,74,160,63,178,209,5,203,168,244,16,213,32,45,210,224,197,243,201,229,197,132,223,72,187,76,47,11,179,55,155,130,141,183,106,145,234,193,209,76,27,137,214,149,86,252,158,204,150,97,57,255,215,26,235,39,179,136,180,222,180,80,59,177,78,77,98,245,100,160,187,107,220,221,30,194,198,145,7,167,249,12,242,82,238,219,243,194,174,233,202,170,4,95,74,185,57,2,224,175,180,11,153,101,187,141,88,252,21,153,159,28,32,30,2,59,153,43,222,86,228,29,9,33,51,182,90,246,36,69,188,53,185,219,177,86,238,142,52,181,41,198,156,139,80,184,224,201,5,87,218,51,220,133,73,226,9,90,246,163,66,16,214,187,68,44,21,231,92,24,17,217,224,146,35,245,201,4,212,246,145,190,194,242,83,250,253,198,247,218,56,141,231,202,161,249,171,181,192,107,48,28,195,145,101,31,143,204,255,60,173,105,169,203,106,89,47,189,80,179,174,167,235,217,136,161,79,192,236,77,197,166,57,217,28,216,94,198,7,177,203,122,203,1,229,254,229,54,213,5,138,242,148,242,62,38,219,255,181,46,89,226,185,93,206,129,250,244,252,68,18,238,30,173,172,78,78,64,227,21,56,142,145,14,8,217,239,170,199,27,106,62,43,231,77,43,32,60,238,175,178,213,147,49,129,67,13,41,21,248,29,207,25,175,92,16,195,11,255,55,193,10,96,224,29,158,214,181,47,43,144,29,68,243,211,237,251,83,27,74,173,166,198,101,175,86,143,166,82,170,72,176,65,216,101,28,165,219,182,15,176,175,90,13,81,188,76,213,234,166,201,1,246,243,39,13,244,221,171,14,91,5,27,1,252,164,183,243,22,189,72,215,95,39,195,17,77,63,229,134,33,37,209,14,239,194,253,225,237,164,60,133,52,21,242,172,178,40,31,9,242,139,89,190,87,248,36,160,28,147,9,228,58,40,244,227,8,247,181,150,204,67,9,231,203,252,99,219,181,74,237,24,242,89,211,93,55,185,25,33,72,33,23,230,65,176,209,31,144,27,16,172,70,240,194,56,174,57,82,250,34,93,75,44,181,69,229,40,220,147,10,30,166,79,252,199,10,75,218,217,25,164,103,3,88,55,70,85,241,20,202,8,210,253,246,14,107,2,233,106,2,142,24,253,95,71,94,58,152,75,186,244,180,130,251,90,9,83,221,176,43,212,19,222,55,183,217,111,96,57,25,166,76,146,231,5,156,168,171,247,8,240,184,214,213,51,74,4,234,217,242,217,229,17,200,172,225,182,225,248,209,244,14,226,43,237,21,212,13,100,67,172,174,28,168,221,240,192,69,33,234,21,209,16,20,17,254,235,18,8,36,193,223,49,249,219,29,4,174,19,74,240,230,187,236,218,232,211,226,240,240,217,206,241,6,248,201,183,206,23,23,189,250,220,62,12,245,73,248,228,67,252,249,29,63,247,49,27,208,86,211,4,236,17,35,0,23,26,39,238,3,62,243,58,16,7,51,7,5,58,242,53,68,9,19,7,18,11,209,9,32,51,24,217,227,9,37,3,232,217,62,235,91,203,223,67,243,52,246,232,239,200,182,34,51,33,218,1,67,38,31,16,31,70,22,215,190,78,15,234,43,3,55,3,219,45,186,232,162,220,69,255,223,184,223,67,41,231,4,240,203,29,12,71,254,27,237,192,16,19,75,191,29,209,58,35,4,215,18,50,11,207,73,21,227,47,25,72,240,240,222,206,227,1,29,2,63,199,22,254,227,216,35,255,197,251,53,223,4,66,213,220,180,16,24,16,54,204,3,219,73,9,34,74,24,205,175,176,37,7,237,241,240,4,17,46,188,230,242,242,2,227,52,236,12,183,252,17,94,243,255,22,249,13,251,12,207,192,205,83,35,54,230,207,220,187,28,243,25,205,221,129,227,47,240,254,11,36,239,208,12,199,250,239,206,232,246,169,5,11,175,231,228,245,11,246,66,248,253,187,216,237,43,229,188,240,20,224,227,204,25,49,199,10,52,50,89,164,19,10,12,211,35,176,199,204,242,176,67,5,213,243,57,235,31,136,225,39,230,212,90,77,6,221,37,236,242,45,5,181,190,226,75,186,64,49,39,247,225,58,33,32,1,41,221,11,234,184,182,1,16,187,44,234,183,198,13,21,40,226,41,54,172,199,232,11,216,212,24,247,214,57,19,200,221,24,46,188,239,7,28,193,254,53,167,228,7,196,76,9,57,203,48,248,243,203,74,31,191,5,182,54,190,216,62,50,213,32,12,35,29,226,242,196,195,236,44,207,73,223,237,255,36,32,214,7,71,179,107,237,61,6,58,3,26,186,73,5,62,252,18,41,205,20,248,44,245,246,4,242,219,7,224,239,189,241,254,248,73,26,243,228,56,68,21,50,200,192,218,194,5,58,193,17,17,241,215,13,36,206,213,33,44,241,183,251,36,27,204,229,229,204,33,237,5,209,22,37,206,39,10,208,14,54,18,63,208,207,1,214,242,225,6,182,31,226,240,223,13,4,72,25,195,220,56,28,45,234,224,230,25,231,68,170,251,30,35,15,39,3,224,29,25,184,206,249,225,20,64,31,4,217,85,178,240,226,25,5,211,223,10,61,223,36,13,7,244,46,249,217,6,193,249,229,229,218,226,245,68,52,2,16,21,21,224,185,213,190,6,58,197,21,209,33,38,213,254,179,204,232,25,20,194,229,221,29,67,203,198,182,216,196,224,27,215,250,237,235,192,196,49,245,245,46,215,75,215,246,46,218,63,232,221,29,43,254,195,218,218,210,227,208,56,200,195,250,201,226,20,56,201,240,63,23,31,50,55,238,73,69,68,76,199,84,54,9,62,231,243,255,35,12,232,19,170,0,10,210,32,61,234,206,206,22,233,235,206,168,235,74,207,214,93,228,255,45,28,37,56,27,10,44,87,235,203,162,177,226,215,234,194,233,5,232,159,205,17,64,222,14,203,221,197,18,247,184,219,226,232,246,242,35,27,255,204,202,38,187,240,40,250,37,42,52,59,0,191,33,41,42,12,217,17,2,31,48,91,32,34,66,28,205,67,205,187,196,250,239,9,25,8,54,221,207,1,43,200,254,249,175,13,205,239,191,60,8,213,211,25,9,68,226,217,54,211,173,218,199,226,202,12,56,55,42,201,69,186,223,200,214,2,165,243,9,83,39,29,80,210,215,32,28,16,55,60,19,43,40,50,48,247,75,40,5,227,27,192,27,23,80,51,86,28,182,0,63,21,186,33,64,210,9,10,199,247,196,221,231,211,11,233,221,238,70,220,25,252,212,59,39,63,6,225,0,22,201,234,201,26,246,2,54,235,246,49,15,23,46,204,4,21,23,228,227,52,204,27,33,3,228,39,255,230,55,13,236,210,4,45,218,18,232,19,25,39,64,81,239,213,4,252,221,34,244,45,36,28,220,213,188,14,33,13,32,249,19,65,223,235,231,194,234,11,235,38,18,249,32,68,34,199,236,194,60,2,40,9,207,18,35,23,54,214,246,46,19,222,238,39,181,5,24,71,164,246,227,46,56,19,243,226,70,220,229,44,2,9,69,61,63,222,239,54,255,207,77,208,221,13,47,246,243,60,33,64,200,218,193,65,31,242,5,3,172,49,236,214,232,24,28,239,32,38,68,18,209,180,20,252,21,212,59,87,24,196,200,30,46,3,178,233,66,74,224,45,35,219,1,255,69,218,50,162,252,216,5,250,55,170,31,34,57,211,61,38,21,197,34,24,225,239,230,252,16,226,70,47,16,240,64,17,74,26,47,214,49,58,15,226,39,205,210,10,75,58,54,204,228,242,175,75,238,60,25,23,255,51,37,230,191,0,5,2,4,241,5,3,38,2,60,5,61,159,7,239,37,21,217,64,196,214,161,27,79,33,22,18,72,215,11,3,91,244,240,11,64,71,47,57,243,237,71,50,72,181,71,82,52,19,48,251,240,32,26,200,43,50,28,74,78,2,37,73,49,61,230,52,58,30,244,224,216,54,59,35,199,255,75,7,11,21,29,76,235,39,92,60,43,34,248,206,20,73,241,226,204,237,37,16,247,204,231,29,207,49,41,51,195,9,49,202,253,41,41,200,60,9,21,51,36,86,191,245,223,215,46,188,36,26,245,6,46,63,14,215,246,25,49,246,44,165,46,244,61,199,214,48,72,226,220,27,194,230,201,4,62,38,225,7,220,215,232,219,23,245,19,60,254,5,198,48,241,191,43,194,15,211,49,8,222,224,238,215,249,27,247,211,235,61,253,4,57,250,86,16,10,98,202,244,67,40,237,93,7,44,80,10,198,215,8,246,30,217,255,80,248,219,191,243,253,224,62,56,82,227,230,14,243,239,206,0,72,77,8,55,21,1,228,218,190,3,2,225,80,243,19,229,225,221,8,11,4,31,41,11,46,202,61,200,239,250,76,231,252,231,211,216,19,44,17,216,12,208,64,48,55,87,210,7,246,43,221,4,26,229,2,159,225,190,225,29,50,220,24,90,239,34,247,234,99,77,229,202,221,62,12,14,8,62,42,232,232,236,201,55,205,88,241,68,103,249,53,220,246,26,189,235,45,90,223,32,220,209,20,30,61,60,249,62,53,238,198,191,11,46,21,17,215,6,95,217,6,187,254,206,63,63,8,8,240,23,249,161,38,223,48,240,231,201,7,102,227,13,221,248,39,40,210,40,1,228,45,183,12,23,57,232,228,203,11,9,14,24,234,43,220,245,80,248,35,252,224,35,65,75,22,60,31,4,230,74,26,9,21,179,250,207,254,233,217,30,203,19,222,18,41,36,32,9,255,195,41,36,62,193,224,22,33,210,32,248,232,77,16,213,241,18,63,205,22,59,29,247,254,58,219,65,237,216,236,45,29,42,49,25,209,85,251,223,213,183,32,213,196,10,213,46,39,36,220,62,52,56,11,215,56,14,23,254,15,43,59,16,10,239,83,1,4,4,250,12,27,25,35,254,34,253,33,47,48,4,12,67,21,52,42,48,248,15,17,206,55,91,222,45,74,234,66,9,58,235,97,73,11,246,78,68,220,64,196,214,36,2,22,18,5,225,230,32,255,34,195,81,233,218,52,198,27,42,235,208,36,50,77,40,225,19,217,50,185,7,158,44,222,235,201,252,60,239,217,38,64,18,204,39,12,197,230,227,5,9,218,21,42,230,36,226,222,193,227,68,231,86,244,87,10,238,75,205,240,17,34,63,235,209,5,51,66,72,26,211,51,37,244,205,85,66,88,43,187,251,190,78,63,246,208,64,71,175,11,190,63,43,15,2,240,12,71,58,96,226,232,207,15,230,215,247,37,4,41,217,59,250,252,58,251,23,235,73,43,195,18,30,38,35,69,26,4,40,241,10,75,247,12,189,216,9,160,11,224,245,65,202,23,252,88,224,11,239,228,65,57,230,255,44,219,205,3,8,230,235,36,68,13,254,253,216,235,82,243,24,20,37,231,241,234,180,245,61,236,51,19,197,246,16,43,205,24,15,28,240,251,251,213,16,40,75,218,44,227,227,197,55,4,27,216,214,49,200,169,62,11,44,210,201,221,199,39,248,22,197,214,225,8,7,255,18,8,193,231,43,47,24,205,35,17,55,61,203,44,196,186,50,182,10,8,214,25,235,249,44,10,247,49,56,194,51,230,64,64,202,51,45,6,20,179,202,66,205,222,22,51,15,21,68,27,212,21,32,37,224,37,28,252,231,252,241,239,12,46,229,225,52,224,235,75,152,184,10,66,12,50,86,232,104,187,84,18,35,33,78,84,183,9,41,49,196,38,18,234,26,39,11,16,0,15,241,82,172,7,20,28,4,250,81,31,25,16,94,237,220,29,6,223,190,61,26,229,222,214,251,247,201,199,87,65,198,0,201,24,41,21,214,250,234,60,88,221,68,55,8,171,0,211,80,247,153,62,183,7,55,70,222,73,38,212,251,241,52,14,182,218,205,215,209,84,236,65,13,37,253,45,32,13,213,247,75,7,32,43,240,5,228,47,69,206,48,45,4,29,196,204,198,67,170,196,0,87,191,227,2,48,244,25,16,200,84,37,58,79,160,218,181,61,222,81,12,231,193,5,77,81,177,215,216,66,15,30,12,77,253,31,221,50,2,11,31,199,43,225,249,215,166,39,180,222,222,245,196,21,194,235,13,245,177,32,236,230,36,10,218,60,43,57,18,14,20,253,25,70,191,239,219,61,232,43,219,234,253,207,230,181,212,231,33,234,194,58,217,64,204,195,40,208,205,241,30,249,226,232,13,173,46,234,35,28,218,248,38,3,225,246,11,25,3,5,16,229,156,217,46,1,235,234,223,51,50,29,13,241,16,207,209,9,16,53,233,13,15,158,226,35,7,239,56,165,228,29,44,65,201,248,35,5,220,37,231,36,197,48,233,230,231,254,29,196,26,249,62,72,15,234,190,41,233,48,244,190,223,26,65,221,226,56,29,199,219,11,218,35,254,61,231,16,238,226,61,218,40,182,213,18,35,15,179,32,54,40,216,227,207,248,247,61,243,35,194,23,183,148,33,10,248,77,242,247,221,63,26,215,75,228,29,20,22,67,239,237,2,233,80,211,54,4,7,10,228,55,5,82,8,3,32,19,4,1,27,34,223,56,3,178,66,41,79,12,26,50,20,85,58,90,216,211,240,206,42,77,24,6,24,65,42,39,49,87,210,97,56,30,43,176,246,229,21,49,21,234,200,234,208,53,232,5,15,247,238,201,43,235,38,219,244,14,239,5,12,235,206,27,6,202,20,227,7,46,40,207,233,21,5,61,237,40,238,31,245,237,213,228,239,235,214,192,191,43,52,7,41,45,211,223,72,49,248,202,22,228,54,40,62,48,0,181,197,45,255,41,41,59,199,201,210,30,167,175,238,61,232,245,203,17,233,229,53,11,255,25,197,254,55,62,4,48,44,246,203,10,41,3,217,233,183,192,9,205,211,223,0,24,212,241,222,203,41,15,39,251,206,0,231,216,18,54,39,234,232,223,206,207,11,211,251,223,33,186,44,12,207,31,233,11,199,183,57,245,251,228,25,203,197,250,23,223,22,198,230,29,33,214,219,234,190,40,13,211,7,14,35,44,235,157,33,31,249,159,25,16,50,20,224,33,58,6,231,181,246,242,248,235,21,40,36,216,202,59,241,231,43,34,242,213,189,222,48,219,169,167,213,74,188,52,82,8,19,31,47,202,235,181,55,30,202,31,32,54,192,237,229,51,38,26,87,88,237,16,12,41,211,237,204,224,23,1,21,228,7,253,1,9,5,227,3,221,41,227,35,54,8,255,48,42,25,45,67,22,189,215,0,230,70,250,21,244,249,39,69,36,234,7,225,192,12,29,40,59,205,5,242,42,245,78,56,28,29,201,236,28,181,33,255,245,38,12,9,28,179,18,40,229,53,26,5,0,209,176,212,80,182,235,236,250,17,213,212,0,2,202,72,75,175,57,48,55,176,39,208,50,3,22,38,218,236,39,40,198,244,193,243,44,187,18,22,208,198,19,45,16,206,233,28,73,180,218,33,35,187,173,59,51,199,5,205,73,210,242,196,5,205,250,200,46,233,201,241,6,25,12,10,192,168,9,6,243,201,160,241,19,185,200,253,248,7,236,255,233,16,26,51,25,245,33,53,234,70,219,251,48,13,225,28,160,1,32,50,66,44,214,33,208,27,240,220,242,231,54,244,206,61,185,246,8,48,226,66,21,29,48,200,57,204,44,219,30,240,21,32,207,180,255,20,32,234,244,13,243,254,29,44,3,39,228,59,188,247,252,6,9,46,69,226,224,248,39,0,216,39,182,64,218,213,214,217,246,201,24,36,234,12,26,61,246,63,191,36,231,214,44,40,66,201,211,28,52,180,28,27,206,251,50,232,75,225,32,20,217,237,14,4,22,199,60,63,50,21,173,239,213,35,180,8,51,16,221,32,48,229,242,22,33,240,31,14,67,54,53,177,250,195,216,53,236,44,252,7,201,104,254,218,22,17,248,29,222,10,250,239,251,8,23,41,16,180,38,243,24,8,247,220,244,246,15,195,57,225,238,242,203,13,237,3,182,225,54,255,30,75,33,55,239,251,239,240,236,27,194,72,1,215,36,219,220,195,23,236,69,70,24,65,47,10,184,10,227,58,36,5,19,252,205,226,62,38,29,36,244,246,42,49,224,39,47,238,225,246,39,54,52,253,205,61,227,84,226,63,210,234,67,42,34,250,12,35,231,3,2,32,201,214,220,6,43,244,172,184,80,212,55,244,214,60,230,227,48,230,190,6,30,233,199,12,66,19,8,219,15,48,197,198,221,11,175,246,216,182,238,229,7,5,184,204,236,229,204,248,43,55,35,249,35,241,206,243,222,36,231,254,31,30,56,54,58,213,242,243,57,24,217,208,30,174,187,239,33,197,207,43,214,226,11,186,250,183,29,149,71,207,49,236,240,49,3,29,53,217,208,30,132,105,155,22,93,17,151,141,15,196,70,146,205,186,151,12,160,23,248,37,136,71,81,150,134,167,244,164,213,252,81,76,28,219,50,4,176,173,100,227,4,161,214,15,161,104,56,17,169,185,249,215,142,87,208,81,62,207,199,1,191,178,219,182,254,207,226,58,50,56,191,223,210,149,25,8,139,251,62,186,197,74,192,225,12,6,188,55,248,37,75,169,166,41,217,12,55,146,44,254,129,199,187,247,85,160,194,159,60,9,31,235,219,144,50,184,196,246,28,193,23,81,146,172,197,35,184,7,165,246,203,15,164,33,243,80,181,43,134,146,32,205,67,11,49,210,181,246,179,233,192,192,12,34,208,39,167,251,168,174,211,249,152,220,162,245,247,215,44,56,52,40,101,96,12,243,219,222,11,181,153,150,85,251,45,54,244,251,68,166,245,130,3,47,216,29,224,236,83,197,14,93,60,59,196,19,251,3,203,236,154,48,221,42,149,230,147,7,148,137,140,156,91,255,228,76,208,92,220,159,199,82,245,85,55,15,60,40,44,216,3,201,68,230,67,101,52,173,67,172,189,179,170,0,3,80,212,91,3,164,211,246,110,216,138,71,62,6,49,172,235,135,24,19,28,159,232,171,166,232,229,135,8,246,218,200,232,214,147,158,112,94,137,61,67,149,248,232,2,203,222,17,36,197,207,44,94,47,134,70,244,94,14,56,0,47,148,220,206,138,207,36,232,52,27,155,14,86,142,58,78,54,248,244,189,168,51,75,4,1,243,155,156,249,201,19,40,247,188,76,34,163,73,248,67,42,19,219,208,63,246,81,177,18,203,191,216,139,96,75,30,54,63,159,221,193,64,18,19,188,175,67,31,186,48,36,106,97,10,227,162,8,242,162,168,146,247,64,155,31,171,240,12,7,34,70,162,19,158,220,200,192,116,88,151,27,195,32,184,176,5,72,100,170,144,104,135,223,238,23,50,6,33,2,187,49,86,157,200,88,79,135,151,45,10,47,71,215,46,167,234,81,195,222,245,61,242,212,244,251,12,195,56,55,240,229,157,132,167,29,237,186,15,36,48,75,181,45,9,63,242,155,214,97,237,41,25,217,77,243,169,74,174,178,72,15,32,145,69,211,211,87,79,89,151,218,232,61,197,7,225,184,207,91,8,98,218,35,21,73,241,86,10,108,172,54,146,8,92,60,222,24,234,247,154,220,168,37,206,77,38,113,252,8,38,210,113,103,234,132,35,245,181,89,137,18,226,196,238,37,6,80,44,232,161,205,84,200,187,69,228,70,18,78,245,208,226,252,136,31,36,75,222,221,187,230,175,85,104,167,215,55,218,40,73,0,217,100,193,219,204,67,146,223,89,195,238,89,190,96,24,58,163,154,104,49,12,100,72,22,71,21,11,51,194,212,163,24,159,251,179,153,159,17,142,142,246,65,214,83,148,249,68,50,3,230,68,184,222,15,227,3,147,148,71,54,50,176,173,66,89,25,47,57,199,44,158,16,221,221,187,18,16,98,216,117,45,17,49,247,74,246,251,31,64,35,36,75,220,198,26,81,25,62,75,247,132,184,41,215,228,33,167,39,241,159,210,99,145,253,0,203,36,67,59,64,245,58,227,147,91,56,239,19,42,53,225,24,236,65,43,236,79,1,65,197,242,109,114,75,138,71,250,194,215,101,177,68,242,226,165,167,3,78,22,179,233,45,188,235,47,91,35,83,217,3,163,188,213,149,27,180,75,86,246,211,225,36,247,15,255,5,87,185,76,137,194,58,196,241,22,227,150,203,196,253,110,58,213,148,9,101,197,222,203,253,210,25,77,250,154,163,212,200,212,163,27,248,193,251,139,44,239,237,3,175,205,66,163,166,159,69,254,108,169,47,79,239,83,50,254,243,33,213,158,222,184,33,112,137,98,65,184,201,251,170,26,193,138,40,244,28,17,191,134,226,182,157,220,176,227,253,253,245,62,2,175,104,183,139,57,42,195,37,70,1,160,246,142,50,183,49,13,34,192,28,37,185,57,160,44,254,95,9,180,80,190,196,5,99,8,110,70,241,172,215,14,208,54,174,1,178,252,71,220,39,24,95,64,99,12,56,80,55,25,1,184,153,11,154,74,60,151,34,201,246,61,176,155,237,87,255,222,59,137,144,208,7,70,185,158,37,81,100,170,141,31,24,43,213,78,181,30,41,77,242,228,156,95,185,90,235,223,247,68,93,6,4,59,97,220,18,131,164,41,187,12,71,165,80,58,132,95,151,29,41,93,168,32,27,229,239,159,230,4,34,140,157,192,87,95,194,158,148,130,155,246,119,236,136,244,37,204,19,6,46,64,223,149,192,183,70,228,211,247,247,85,244,219,78,90,246,117,120,212,241,65,166,184,166,18,90,105,25,53,119,63,216,100,182,2,76,197,4,28,233,201,238,174,199,241,76,200,81,30,31,54,21,62,26,38,149,242,187,7,24,29,184,50,183,14,37,252,251,112,218,86,23,37,253,52,229,191,78,136,65,211,153,233,223,207,219,200,15,131,171,179,182,213,40,55,171,13,81,207,195,99,46,99,168,170,67,236,7,243,136,36,175,63,105,243,70,191,91,216,37,177,91,177,198,222,228,17,148,177,219,70,161,163,148,8,7,33,61,102,167,242,173,45,139,175,35,93,22,39,218,64,148,80,147,21,88,182,3,75,230,16,228,34,235,197,150,95,181,93,41,32,146,239,173,31,186,240,254,94,32,205,11,214,91,86,38,63,27,223,117,201,51,187,215,219,167,200,85,195,24,222,10,242,170,71,240,187,177,4,15,159,85,25,153,53,62,226,54,101,17,140,135,141,67,6,194,26,95,254,160,236,130,56,208,181,84,1,148,199,249,160,101,59,160,16,18,252,12,242,131,254,179,74,219,131,82,155,164,89,252,239,58,12,7,178,103,72,34,63,206,13,154,95,55,41,240,179,16,118,146,188,200,23,178,23,217,37,177,99,87,201,82,62,150,21,218,175,152,177,149,12,192,152,133,185,69,193,33,193,163,87,214,83,80,149,218,241,187,220,209,83,27,207,71,74,25,151,23,35,183,36,153,30,202,255,186,148,185,231,173,154,99,40,92,65,212,196,1,211,168,209,49,166,55,194,243,1,77,179,31,86,29,168,101,216,190,166,83,37,111,209,179,61,8,196,170,231,78,99,44,235,126,218,197,54,46,248,10,52,246,172,209,207,234,29,111,16,76,255,85,4,209,89,155,93,107,180,113,42,190,248,45,19,238,214,190,57,66,4,162,46,175,188,44,42,175,153,4,147,23,23,219,219,124,90,210,237,91,118,37,3,169,165,1,244,47,50,95,42,188,156,75,146,144,58,3,145,77,110,211,144,203,245,72,249,152,83,151,202,204,75,176,18,163,250,5,147,244,57,149,214,168,23,162,34,172,90,44,162,106,179,13,88,89,200,235,106,93,185,8,19,72,101,48,74,8,121,79,26,193,167,16,229,244,225,230,170,0,39,150,203,214,32,194,7,195,37,39,124,179,249,73,180,109,95,200,136,131,52,231,152,33,255,243,223,69,176,246,191,176,206,203,78,171,231,16,192,202,77,159,37,107,189,169,137,11,254,68,236,25,248,218,205,33,161,14,33,191,96,3,145,93,60,236,224,110,85,215,201,80,143,26,7,238,23,133,18,39,113,170,77,35,64,164,93,170,189,164,50,237,49,176,223,46,218,78,159,64,222,207,27,45,18,162,75,180,40,59,187,222,19,207,180,22,175,47,166,96,161,186,168,166,203,150,32,156,50,157,57,185,25,99,203,174,49,249,54,14,232,234,54,250,25,97,246,227,222,189,179,223,245,59,2,26,188,22,16,19,162,223,32,156,234,216,65,248,75,239,81,81,193,231,155,22,170,223,86,244,55,172,69,12,210,48,190,1,45,43,67,195,84,51,31,173,251,223,177,200,51,188,23,184,86,251,20,156,64,51,85,48,180,56,242,88,176,125,221,29,147,0,211,20,204,240,214,172,189,164,170,81,77,131,3,69,79,217,45,200,43,204,61,172,34,191,150,228,215,234,19,170,173,69,40,154,105,9,161,5,14,49,170,36,50,156,123,119,62,36,63,103,46,89,152,214,160,227,175,189,134,10,228,12,177,48,195,69,104,47,137,150,92,66,212,3,214,62,27,208,253,3,9,163,190,44,22,222,162,20,219,78,87,6,80,60,254,225,25,217,75,137,247,4,85,7,188,130,69,189,62,80,206,92,236,98,186,125,199,104,147,137,17,241,193,146,201,220,14,205,239,53,46,88,178,47,220,251,171,171,146,253,19,80,160,48,158,147,200,77,79,84,6,69,223,43,172,4,159,235,156,50,55,253,221,43,152,41,102,42,2,134,52,0,56,35,181,175,233,218,221,6,70,195,168,252,138,204,217,42,238,68,192,25,205,216,148,182,90,93,176,172,57,72,72,17,43,222,240,223,154,55,28,108,14,245,165,153,222,216,151,188,191,213,33,177,85,197,85,178,211,50,27,31,23,95,36,212,80,163,233,171,66,107,57,176,78,252,188,177,156,74,252,210,69,195,47,221,23,205,211,234,166,89,194,87,7,248,44,93,2,31,147,53,166,254,239,155,175,220,163,47,246,138,223,214,50,242,87,142,145,222,157,182,138,198,0,23,1,23,213,30,187,54,194,78,251,230,55,106,146,199,154,79,233,89,70,186,70,47,174,175,177,226,220,183,188,60,217,90,45,75,194,6,13,30,172,228,212,154,212,37,254,252,249,76,155,55,150,45,61,29,41,91,169,12,210,15,153,254,180,236,153,134,232,131,59,44,31,35,55,0,13,158,193,36,222,36,214,131,206,31,41,114,135,91,78,67,38,27,209,85,20,146,0,131,212,33,69,93,245,203,7,54,165,76,200,208,83,59,37,32,234,23,4,105,19,14,99,223,49,3,41,194,233,0,139,68,72,174,97,20,166,159,109,217,190,164,49,231,145,64,204,214,61,212,3,183,130,224,61,219,2,215,23,101,252,170,43,2,64,4,88,222,74,161,1,249,100,237,172,26,181,12,40,240,39,18,6,70,91,169,93,69,250,39,146,239,16,87,15,193,240,185,73,82,88,66,155,22,168,121,13,169,163,22,77,85,146,22,77,220,251,7,188,254,29,138,161,242,118,111,42,169,0,56,245,94,9,232,23,39,168,111,90,148,227,167,64,88,52,242,5,212,254,163,180,218,56,79,31,56,30,15,10,47,27,216,56,199,219,81,0,11,193,193,251,37,191,152,22,61,102,125,24,63,132,177,42,57,97,210,143,92,247,31,22,148,51,25,123,235,182,93,32,102,219,214,32,52,236,226,7,32,242,1,98,221,78,153,51,139,16,248,58,91,0,56,250,162,176,72,249,91,185,226,236,155,159,6,8,48,65,18,43,0,166,255,210,200,145,9,4,166,163,197,3,101,31,42,74,84,39,218,161,8,171,93,8,252,218,3,184,160,24,157,231,230,149,73,106,121,16,200,236,46,248,175,71,18,206,107,145,20,253,18,161,220,85,204,230,33,193,186,139,29,245,179,230,1,104,199,243,203,74,49,87,89,155,15,250,253,62,199,23,244,136,29,205,203,32,133,147,247,1,84,211,232,61,248,192,212,64,199,89,165,161,113,61,79,3,18,210,34,237,154,46,42,40,78,209,170,242,224,208,251,190,60,245,181,51,193,10,170,48,23,44,197,215,71,228,183,213,132,175,95,64,182,182,41,85,30,1,92,254,160,47,65,220,88,31,240,196,22,226,201,14,253,9,192,158,63,204,243,198,214,158,234,215,55,49,159,156,218,63,178,90,225,155,45,10,71,211,74,89,208,201,202,173,205,219,160,72,191,68,30,156,240,51,82,88,117,12,66,249,93,217,35,61,172,185,19,61,183,92,35,108,51,131,16,84,7,31,226,18,144,193,44,97,136,185,59,9,200,191,251,152,27,210,89,36,143,248,84,115,244,75,252,205,3,84,235,190,251,10,101,74,200,145,31,190,38,199,166,210,207,180,10,34,12,162,104,237,190,145,18,192,161,205,24,68,200,80,153,181,83,10,66,212,17,18,202,173,71,241,207,222,178,29,95,135,235,165,254,87,51,189,179,252,177,215,61,83,223,48,56,239,8,69,68,89,129,10,35,25,175,138,237,219,253,250,76,29,196,188,196,227,200,74,87,238,64,136,81,255,176,12,170,45,40,246,222,181,134,84,195,75,73,26,157,229,236,33,79,46,227,53,225,49,188,205,38,169,78,137,132,241,64,200,157,242,241,193,194,50,171,243,44,164,92,57,230,159,162,132,210,15,142,28,144,84,86,245,231,13,66,93,167,73,26,194,35,235,195,111,188,80,160,249,68,193,155,169,12,11,201,28,146,21,